{
  "version": "1.0",
  "truncation": null,
  "padding": null,
  "added_tokens": [
    {
      "id": 0,
      "content": "<|begin_of_text|>",
      "single_word": false,
      "lstrip": false,
      "rstrip": false,
      "normalized": false,
      "special": true
    },
    {
      "id": 1,
      "content": "<|end_of_text|>",
      "single_word": false,
      "lstrip": false,
      "rstrip": false,
      "normalized": false,
      "special": true
    },
    {
      "id": 2,
      "content": "<|pad|>",
      "single_word": false,
      "lstrip": false,
      "rstrip": false,
      "normalized": false,
      "special": true
    }
  ],
  "normalizer": null,
  "pre_tokenizer": {
    "type": "ByteLevel",
    "add_prefix_space": false,
    "trim_offsets": true,
    "use_regex": true
  },
  "post_processor": null,
  "decoder": {
    "type": "ByteLevel",
    "add_prefix_space": true,
    "trim_offsets": true,
    "use_regex": true
  },
  "model": {
    "type": "BPE",
    "dropout": null,
    "unk_token": null,
    "continuing_subword_prefix": null,
    "end_of_word_suffix": null,
    "fuse_unk": false,
    "byte_fallback": false,
    "ignore_merges": false,
    "vocab": {
      "<|begin_of_text|>": 0,
      "<|end_of_text|>": 1,
      "<|pad|>": 2,
      "!": 3,
      "\"": 4,
      "#": 5,
      "$": 6,
      "%": 7,
      "&": 8,
      "'": 9,
      "(": 10,
      ")": 11,
      "*": 12,
      "+": 13,
      ",": 14,
      "-": 15,
      ".": 16,
      "/": 17,
      "0": 18,
      "1": 19,
      "2": 20,
      "3": 21,
      "4": 22,
      "5": 23,
      "6": 24,
      "7": 25,
      "8": 26,
      "9": 27,
      ":": 28,
      ";": 29,
      "<": 30,
      "=": 31,
      ">": 32,
      "?": 33,
      "@": 34,
      "A": 35,
      "B": 36,
      "C": 37,
      "D": 38,
      "E": 39,
      "F": 40,
      "G": 41,
      "H": 42,
      "I": 43,
      "J": 44,
      "K": 45,
      "L": 46,
      "M": 47,
      "N": 48,
      "O": 49,
      "P": 50,
      "Q": 51,
      "R": 52,
      "S": 53,
      "T": 54,
      "U": 55,
      "V": 56,
      "W": 57,
      "X": 58,
      "Y": 59,
      "Z": 60,
      "[": 61,
      "\\": 62,
      "]": 63,
      "^": 64,
      "_": 65,
      "`": 66,
      "a": 67,
      "b": 68,
      "c": 69,
      "d": 70,
      "e": 71,
      "f": 72,
      "g": 73,
      "h": 74,
      "i": 75,
      "j": 76,
      "k": 77,
      "l": 78,
      "m": 79,
      "n": 80,
      "o": 81,
      "p": 82,
      "q": 83,
      "r": 84,
      "s": 85,
      "t": 86,
      "u": 87,
      "v": 88,
      "w": 89,
      "x": 90,
      "y": 91,
      "z": 92,
      "{": 93,
      "|": 94,
      "}": 95,
      "~": 96,
      "¡": 97,
      "¢": 98,
      "£": 99,
      "¤": 100,
      "¥": 101,
      "¦": 102,
      "§": 103,
      "¨": 104,
      "©": 105,
      "ª": 106,
      "«": 107,
      "¬": 108,
      "®": 109,
      "¯": 110,
      "°": 111,
      "±": 112,
      "²": 113,
      "³": 114,
      "´": 115,
      "µ": 116,
      "¶": 117,
      "·": 118,
      "¸": 119,
      "¹": 120,
      "º": 121,
      "»": 122,
      "¼": 123,
      "½": 124,
      "¾": 125,
      "¿": 126,
      "À": 127,
      "Á": 128,
      "Â": 129,
      "Ã": 130,
      "Ä": 131,
      "Å": 132,
      "Æ": 133,
      "Ç": 134,
      "È": 135,
      "É": 136,
      "Ê": 137,
      "Ë": 138,
      "Ì": 139,
      "Í": 140,
      "Î": 141,
      "Ï": 142,
      "Ð": 143,
      "Ñ": 144,
      "Ò": 145,
      "Ó": 146,
      "Ô": 147,
      "Õ": 148,
      "Ö": 149,
      "×": 150,
      "Ø": 151,
      "Ù": 152,
      "Ú": 153,
      "Û": 154,
      "Ü": 155,
      "Ý": 156,
      "Þ": 157,
      "ß": 158,
      "à": 159,
      "á": 160,
      "â": 161,
      "ã": 162,
      "ä": 163,
      "å": 164,
      "æ": 165,
      "ç": 166,
      "è": 167,
      "é": 168,
      "ê": 169,
      "ë": 170,
      "ì": 171,
      "í": 172,
      "î": 173,
      "ï": 174,
      "ð": 175,
      "ñ": 176,
      "ò": 177,
      "ó": 178,
      "ô": 179,
      "õ": 180,
      "ö": 181,
      "÷": 182,
      "ø": 183,
      "ù": 184,
      "ú": 185,
      "û": 186,
      "ü": 187,
      "ý": 188,
      "þ": 189,
      "ÿ": 190,
      "Ā": 191,
      "ā": 192,
      "Ă": 193,
      "ă": 194,
      "Ą": 195,
      "ą": 196,
      "Ć": 197,
      "ć": 198,
      "Ĉ": 199,
      "ĉ": 200,
      "Ċ": 201,
      "ċ": 202,
      "Č": 203,
      "č": 204,
      "Ď": 205,
      "ď": 206,
      "Đ": 207,
      "đ": 208,
      "Ē": 209,
      "ē": 210,
      "Ĕ": 211,
      "ĕ": 212,
      "Ė": 213,
      "ė": 214,
      "Ę": 215,
      "ę": 216,
      "Ě": 217,
      "ě": 218,
      "Ĝ": 219,
      "ĝ": 220,
      "Ğ": 221,
      "ğ": 222,
      "Ġ": 223,
      "ġ": 224,
      "Ģ": 225,
      "ģ": 226,
      "Ĥ": 227,
      "ĥ": 228,
      "Ħ": 229,
      "ħ": 230,
      "Ĩ": 231,
      "ĩ": 232,
      "Ī": 233,
      "ī": 234,
      "Ĭ": 235,
      "ĭ": 236,
      "Į": 237,
      "į": 238,
      "İ": 239,
      "ı": 240,
      "Ĳ": 241,
      "ĳ": 242,
      "Ĵ": 243,
      "ĵ": 244,
      "Ķ": 245,
      "ķ": 246,
      "ĸ": 247,
      "Ĺ": 248,
      "ĺ": 249,
      "Ļ": 250,
      "ļ": 251,
      "Ľ": 252,
      "ľ": 253,
      "Ŀ": 254,
      "ŀ": 255,
      "Ł": 256,
      "ł": 257,
      "Ń": 258,
      "ĠĠ": 259,
      "ĠĠĠĠ": 260,
      "ĠĠĠ": 261,
      "ĠĠĠĠĠĠĠĠ": 262,
      "se": 263,
      "in": 264,
      "ĠĠĠĠĠĠĠ": 265,
      "re": 266,
      "at": 267,
      "on": 268,
      "ĊĠĠĠĠĠĠĠ": 269,
      "or": 270,
      "er": 271,
      "Ġ=": 272,
      "ĊĠĠĠĠĠĠĠĠ": 273,
      "st": 274,
      "ĊĠĠĠ": 275,
      "en": 276,
      "Ġt": 277,
      "de": 278,
      "al": 279,
      "ar": 280,
      "sel": 281,
      "self": 282,
      "an": 283,
      "me": 284,
      "le": 285,
      "Ġi": 286,
      "ti": 287,
      "ĊĠĠĠĠĠĠĠĠĠĠĠ": 288,
      "Ġc": 289,
      "ro": 290,
      "Ġp": 291,
      "Ġf": 292,
      "he": 293,
      "--": 294,
      "Ġ\"": 295,
      "it": 296,
      "Ġ'": 297,
      "as": 298,
      "ge": 299,
      "Ġself": 300,
      "mp": 301,
      "ce": 302,
      "Ġre": 303,
      "ur": 304,
      "lo": 305,
      "Ġn": 306,
      "ut": 307,
      "Ġin": 308,
      "):": 309,
      "ame": 310,
      "##": 311,
      "Ġs": 312,
      "ct": 313,
      "ing": 314,
      "ue": 315,
      "Ġo": 316,
      "di": 317,
      "li": 318,
      "ate": 319,
      "Ġa": 320,
      "def": 321,
      "pe": 322,
      "',": 323,
      "co": 324,
      "fi": 325,
      "Ġm": 326,
      "Ġe": 327,
      "ion": 328,
      "te": 329,
      "un": 330,
      "id": 331,
      "ra": 332,
      "ĊĠĠĠĠĠĠĠĠĠĠĠĠĠĠĠĠ": 333,
      "ent": 334,
      "tion": 335,
      "()": 336,
      "Ġ#": 337,
      "Ġb": 338,
      "ort": 339,
      "ad": 340,
      "ser": 341,
      "Ġthe": 342,
      "ĊĊĠĠĠ": 343,
      "ĊĠĠĠĠĠĠĠĠĠĠĠĠĠĠĠ": 344,
      "ch": 345,
      "Ġif": 346,
      "Ġd": 347,
      "ata": 348,
      "um": 349,
      "ul": 350,
      "\"\"": 351,
      "urn": 352,
      "----": 353,
      "Ġw": 354,
      "ss": 355,
      "Ġ(": 356,
      "ck": 357,
      "turn": 358,
      "ri": 359,
      "ot": 360,
      "la": 361,
      "and": 362,
      "__": 363,
      "mport": 364,
      "el": 365,
      "int": 366,
      "ma": 367,
      "get": 368,
      "Ġdef": 369,
      "Ġfor": 370,
      "ode": 371,
      "ed": 372,
      "\",": 373,
      "==": 374,
      "val": 375,
      "name": 376,
      "Ġ1": 377,
      "ol": 378,
      "Ġreturn": 379,
      "')": 380,
      "one": 381,
      "ation": 382,
      "####": 383,
      "rom": 384,
      "('": 385,
      "00": 386,
      "Ġ0": 387,
      "Ġ[": 388,
      "':": 389,
      "set": 390,
      "))": 391,
      "ype": 392,
      "Ġst": 393,
      "es": 394,
      "th": 395,
      "Ġto": 396,
      "up": 397,
      "is": 398,
      "con": 399,
      "ĠT": 400,
      "ĊĊĠĠĠĠĠĠĠ": 401,
      "Ġ+": 402,
      "ath": 403,
      "ter": 404,
      "il": 405,
      "ĊĊ": 406,
      "iz": 407,
      "']": 408,
      "xt": 409,
      "ass": 410,
      "ver": 411,
      "ap": 412,
      "et": 413,
      "ve": 414,
      "arg": 415,
      "None": 416,
      "Ġis": 417,
      "(\"": 418,
      "Ġ-": 419,
      "),": 420,
      "ction": 421,
      "['": 422,
      "Ġ\"\"\"": 423,
      "Ġ{": 424,
      "ig": 425,
      "from": 426,
      "Ġimport": 427,
      "ke": 428,
      "Ġof": 429,
      "sp": 430,
      "am": 431,
      "Ġas": 432,
      "put": 433,
      "qu": 434,
      "ab": 435,
      "data": 436,
      "op": 437,
      "orm": 438,
      "ĠĠĠĠĠĠĠĠĠĠĠĠĠĠĠĠ": 439,
      "cl": 440,
      "Ġ==": 441,
      "ult": 442,
      "end": 443,
      "\")": 444,
      "Ġl": 445,
      "Ġg": 446,
      "ect": 447,
      "age": 448,
      "ht": 449,
      "odel": 450,
      "Ġcon": 451,
      "par": 452,
      "to": 453,
      "\":": 454,
      "value": 455,
      "],": 456,
      "po": 457,
      "est": 458,
      "ĠC": 459,
      "ĠS": 460,
      "vi": 461,
      "rue": 462,
      "Ġ2": 463,
      "list": 464,
      "ith": 465,
      "ĊĠĠĠĠĠĠĠĠĠĠĠĠĠĠĠĠĠĠĠ": 466,
      "Ġ:": 467,
      "ĠA": 468,
      "all": 469,
      "Ġr": 470,
      "pro": 471,
      "od": 472,
      "path": 473,
      "rint": 474,
      "res": 475,
      "--------": 476,
      "Ġu": 477,
      "._": 478,
      "log": 479,
      "Ġ*": 480,
      "ize": 481,
      "ĠNone": 482,
      "om": 483,
      "Ġand": 484,
      "str": 485,
      "ĉĉ": 486,
      "sert": 487,
      "ile": 488,
      "type": 489,
      "args": 490,
      "ic": 491,
      "Ġnot": 492,
      "ub": 493,
      "file": 494,
      "Ġdi": 495,
      "====": 496,
      "Ġh": 497,
      "ĠF": 498,
      "ord": 499,
      "ta": 500,
      "ase": 501,
      "Ġex": 502,
      "form": 503,
      "per": 504,
      "Ġde": 505,
      "ine": 506,
      "tr": 507,
      "import": 508,
      "Ġth": 509,
      "out": 510,
      "us": 511,
      "########": 512,
      "='": 513,
      "ror": 514,
      "Re": 515,
      "ow": 516,
      "ex": 517,
      "sc": 518,
      "que": 519,
      "ĊĠĠĠĠ": 520,
      "ist": 521,
      "ĠP": 522,
      "ew": 523,
      "key": 524,
      "ĠI": 525,
      "bj": 526,
      "ment": 527,
      "ption": 528,
      "able": 529,
      "ite": 530,
      "fig": 531,
      "Ġdata": 532,
      "app": 533,
      "sh": 534,
      "])": 535,
      "time": 536,
      "ers": 537,
      "ren": 538,
      "class": 539,
      "ac": 540,
      "alse": 541,
      "Ġprint": 542,
      "Ġ_": 543,
      "Ġel": 544,
      "ance": 545,
      "test": 546,
      "len": 547,
      "Ġstr": 548,
      "red": 549,
      "lab": 550,
      "Ġelse": 551,
      "ĠD": 552,
      "ĠL": 553,
      "eld": 554,
      "bo": 555,
      "Ġx": 556,
      "ack": 557,
      "Ġnp": 558,
      "čĊ": 559,
      "mple": 560,
      "fo": 561,
      "add": 562,
      "im": 563,
      "ange": 564,
      "Ġpar": 565,
      "Ġwith": 566,
      "Ġme": 567,
      "date": 568,
      "py": 569,
      "Ġy": 570,
      "pt": 571,
      "Ġ%": 572,
      "Ġpro": 573,
      "quest": 574,
      "Ġse": 575,
      "ff": 576,
      "ure": 577,
      "atch": 578,
      "mo": 579,
      "Ġco": 580,
      "Ġ)": 581,
      "mage": 582,
      "Ġtest": 583,
      "ĊĠĠĠĠĠĠĠĠĠĠĠĠĠĠĠĠĠĠĠĠĠĠĠĠ": 584,
      "ĠM": 585,
      "[\"": 586,
      "der": 587,
      "text": 588,
      "True": 589,
      "ext": 590,
      "čĊĠĠĠĠĠĠĠ": 591,
      "Ġbe": 592,
      "os": 593,
      "Ġres": 594,
      "unt": 595,
      "our": 596,
      "Ġv": 597,
      "Ġor": 598,
      "In": 599,
      "art": 600,
      "**": 601,
      "ci": 602,
      "size": 603,
      "Ġname": 604,
      "Ġma": 605,
      "lay": 606,
      "=\"": 607,
      "čĊĠĠĠ": 608,
      "ĠO": 609,
      "01": 610,
      "dex": 611,
      "ĠE": 612,
      "ms": 613,
      "ind": 614,
      "Ġ__": 615,
      "Ġ3": 616,
      "bject": 617,
      "Ġget": 618,
      "ime": 619,
      "load": 620,
      "ly": 621,
      "model": 622,
      "ault": 623,
      "ans": 624,
      "pre": 625,
      "com": 626,
      "ĊĠĠĠĠĠĠĠĠĠĠĠĠĠĠĠĠĠĠĠĠĠĠĠĠĠĠĠĠĠĠĠĠ": 627,
      "\"]": 628,
      "reate": 629,
      "Ġfile": 630,
      "label": 631,
      "ray": 632,
      "ĊĠĠĠĠĠĠĠĠĠĠĠĠĠĠĠĠĠĠĠĠĠĠĠ": 633,
      "col": 634,
      "param": 635,
      "ask": 636,
      "},": 637,
      "tri": 638,
      "cess": 639,
      "ens": 640,
      "..": 641,
      "ĊĠĠĠĠĠ": 642,
      "ty": 643,
      "Ġvalue": 644,
      "ctor": 645,
      "ho": 646,
      "ise": 647,
      "ER": 648,
      "ag": 649,
      "mb": 650,
      "rror": 651,
      "rain": 652,
      "und": 653,
      "ep": 654,
      "\"\"\"": 655,
      "dir": 656,
      "append": 657,
      "Ġ<": 658,
      "low": 659,
      "url": 660,
      "jo": 661,
      "ield": 662,
      "ces": 663,
      "stance": 664,
      "ay": 665,
      "rent": 666,
      "num": 667,
      "Error": 668,
      "Ġassert": 669,
      "Ġmodel": 670,
      "Ġout": 671,
      "ph": 672,
      "dict": 673,
      "ape": 674,
      "if": 675,
      "ĠN": 676,
      "IN": 677,
      "assert": 678,
      "son": 679,
      "code": 680,
      "format": 681,
      "ity": 682,
      "loc": 683,
      "Ġlen": 684,
      ").": 685,
      "ĊĠ": 686,
      "ry": 687,
      "che": 688,
      "ang": 689,
      "Ġlog": 690,
      "bu": 691,
      "Ġos": 692,
      "ON": 693,
      "Ġhe": 694,
      "========": 695,
      "oc": 696,
      "ĠB": 697,
      "ard": 698,
      "onse": 699,
      "10": 700,
      "Ġk": 701,
      "ule": 702,
      "----------------": 703,
      "read": 704,
      "user": 705,
      "min": 706,
      "lic": 707,
      "init": 708,
      "ssage": 709,
      "array": 710,
      "Ġon": 711,
      "ir": 712,
      "Ċĉĉ": 713,
      "ssion": 714,
      "__(": 715,
      "ample": 716,
      "ust": 717,
      "fe": 718,
      "ary": 719,
      "tp": 720,
      "ator": 721,
      "Ġfrom": 722,
      "Ċĉ": 723,
      "Con": 724,
      "():": 725,
      "Ġlist": 726,
      "Ġan": 727,
      "ĠTrue": 728,
      "Ġ>": 729,
      "json": 730,
      "Ġ@": 731,
      "ls": 732,
      "ument": 733,
      "ute": 734,
      "Ġset": 735,
      "ted": 736,
      "fa": 737,
      "ĠR": 738,
      "ource": 739,
      "ber": 740,
      "ight": 741,
      "Ġen": 742,
      "ĠG": 743,
      "ip": 744,
      "Ġun": 745,
      "//": 746,
      "Ġro": 747,
      "ES": 748,
      "ork": 749,
      "################": 750,
      "vice": 751,
      "config": 752,
      "ave": 753,
      "ĠW": 754,
      "AT": 755,
      "Ġra": 756,
      "roup": 757,
      "ger": 758,
      "Ġnum": 759,
      "Ġtime": 760,
      "dd": 761,
      "thod": 762,
      "max": 763,
      "lot": 764,
      "line": 765,
      "lient": 766,
      "ign": 767,
      "error": 768,
      "ĠU": 769,
      "Ġch": 770,
      "count": 771,
      "valid": 772,
      "pp": 773,
      "ĠV": 774,
      "sed": 775,
      "Ġ4": 776,
      "vent": 777,
      "ĠFalse": 778,
      "False": 779,
      "Ġint": 780,
      "Ġresult": 781,
      "stat": 782,
      "rep": 783,
      "cur": 784,
      "ener": 785,
      "loat": 786,
      "info": 787,
      "ys": 788,
      "qual": 789,
      "sponse": 790,
      "Ġcol": 791,
      "http": 792,
      "20": 793,
      "Ġtype": 794,
      "Ġthis": 795,
      "ne": 796,
      "cept": 797,
      "ĠRe": 798,
      "lif": 799,
      "ll": 800,
      "rame": 801,
      "index": 802,
      "vers": 803,
      "].": 804,
      "Ġat": 805,
      "arget": 806,
      "Ġ[]": 807,
      "ore": 808,
      "([": 809,
      "OR": 810,
      "EN": 811,
      "ations": 812,
      "cs": 813,
      "ari": 814,
      "Ġwh": 815,
      "ts": 816,
      "Ġal": 817,
      "ec": 818,
      "ann": 819,
      "Ġ/": 820,
      "gra": 821,
      "uth": 822,
      "rite": 823,
      "tial": 824,
      "ameter": 825,
      "update": 826,
      "unction": 827,
      "ĠĠĠĠĠ": 828,
      "we": 829,
      "scri": 830,
      "lit": 831,
      "''": 832,
      "print": 833,
      "pi": 834,
      "Ġ`": 835,
      "input": 836,
      "ild": 837,
      "lock": 838,
      "ĊĊĠĠĠĠĠĠĠĠĠĠĠ": 839,
      "ST": 840,
      "mand": 841,
      "df": 842,
      "Ġ+=": 843,
      "ok": 844,
      "ump": 845,
      "ings": 846,
      "Ġ{}": 847,
      "ft": 848,
      "are": 849,
      "sen": 850,
      "ĠThe": 851,
      "ock": 852,
      "Ġrange": 853,
      "'),": 854,
      "Ġelif": 855,
      "ery": 856,
      "join": 857,
      "wargs": 858,
      "Ġ5": 859,
      "Ġop": 860,
      "12": 861,
      "Ġby": 862,
      "Ġpre": 863,
      "image": 864,
      "AR": 865,
      "si": 866,
      "sub": 867,
      "Ġthat": 868,
      "ense": 869,
      ".__": 870,
      "base": 871,
      "Ġkey": 872,
      "Ġwe": 873,
      "ME": 874,
      "shape": 875,
      "np": 876,
      "Ġsh": 877,
      "umn": 878,
      "state": 879,
      "for": 880,
      "Ġnew": 881,
      "object": 882,
      "db": 883,
      "://": 884,
      "ght": 885,
      "Ġcl": 886,
      "gs": 887,
      "ject": 888,
      "yn": 889,
      "Ġraise": 890,
      "Ġ->": 891,
      "late": 892,
      "word": 893,
      "'],": 894,
      "ception": 895,
      "main": 896,
      "mat": 897,
      "gth": 898,
      "no": 899,
      "point": 900,
      "train": 901,
      "Ġpy": 902,
      "99": 903,
      "Ġuser": 904,
      "qui": 905,
      "version": 906,
      "da": 907,
      "own": 908,
      "output": 909,
      "og": 910,
      "Name": 911,
      "ml": 912,
      "Type": 913,
      "lib": 914,
      "start": 915,
      "Ġdefault": 916,
      "ial": 917,
      "čĊĠĠĠĠĠĠĠĠĠĠĠ": 918,
      "port": 919,
      "Ġrequest": 920,
      "St": 921,
      "orch": 922,
      "())": 923,
      "mit": 924,
      "ill": 925,
      "work": 926,
      "heck": 927,
      "ax": 928,
      "node": 929,
      "ĠĠĠĠĠĠ": 930,
      "with": 931,
      "32": 932,
      "ory": 933,
      "result": 934,
      "ded": 935,
      "instance": 936,
      "cal": 937,
      "ĠH": 938,
      "][": 939,
      "odule": 940,
      "IT": 941,
      "Ġpo": 942,
      "uti": 943,
      "lin": 944,
      "pect": 945,
      "map": 946,
      "comp": 947,
      "Ġinput": 948,
      "Ġoutput": 949,
      "Ġcur": 950,
      "tent": 951,
      "Ġ**": 952,
      "Equal": 953,
      "uct": 954,
      "LE": 955,
      "SE": 956,
      "Ġexcept": 957,
      "emp": 958,
      "lob": 959,
      "Ġbo": 960,
      "Data": 961,
      "query": 962,
      "vel": 963,
      "ID": 964,
      "Ġare": 965,
      "ken": 966,
      "Ġ('": 967,
      "lt": 968,
      "Ġargs": 969,
      "Ġall": 970,
      "request": 971,
      "ast": 972,
      "Ġsub": 973,
      "Field": 974,
      "ree": 975,
      "ĠIn": 976,
      "stri": 977,
      "andom": 978,
      "Pro": 979,
      "Ġpath": 980,
      "iv": 981,
      "Ġcom": 982,
      "argument": 983,
      "Ġle": 984,
      "ace": 985,
      "by": 986,
      "ant": 987,
      "[:": 988,
      "mi": 989,
      "Ġ}": 990,
      "xb": 991,
      "write": 992,
      "(),": 993,
      "Ġtry": 994,
      "Ġno": 995,
      "Ġ\\": 996,
      "ull": 997,
      "RE": 998,
      "ds": 999,
      "ress": 1000,
      "return": 1001,
      "arch": 1002,
      "Ġac": 1003,
      "ark": 1004,
      "back": 1005,
      "row": 1006,
      "trib": 1007,
      "02": 1008,
      "Ex": 1009,
      "Ġmax": 1010,
      "tain": 1011,
      "Ġconfig": 1012,
      "ated": 1013,
      "run": 1014,
      "11": 1015,
      "ug": 1016,
      "lename": 1017,
      "().": 1018,
      "ses": 1019,
      "xa": 1020,
      "view": 1021,
      "64": 1022,
      "tions": 1023,
      "create": 1024,
      "lace": 1025,
      "core": 1026,
      "ĊĠĠĠĠĠĠĠĠĠĠĠĠĠĠĠĠĠĠĠĠĠĠĠĠĠĠĠ": 1027,
      "av": 1028,
      "assertEqual": 1029,
      "xc": 1030,
      "reg": 1031,
      "0000": 1032,
      "filename": 1033,
      "split": 1034,
      "Ġ.": 1035,
      "thon": 1036,
      "enti": 1037,
      "ak": 1038,
      "xf": 1039,
      "Ġid": 1040,
      "layer": 1041,
      "Ġcomp": 1042,
      "NA": 1043,
      "plot": 1044,
      "kwargs": 1045,
      "Ġimage": 1046,
      "ou": 1047,
      "bs": 1048,
      "\".": 1049,
      "ader": 1050,
      "group": 1051,
      "xe": 1052,
      "Ġpass": 1053,
      "right": 1054,
      "XX": 1055,
      "Ġit": 1056,
      "ensor": 1057,
      "Ġline": 1058,
      "Ġser": 1059,
      "em": 1060,
      "arn": 1061,
      "action": 1062,
      "lp": 1063,
      "temp": 1064,
      "Ġax": 1065,
      "25": 1066,
      "ron": 1067,
      "'.": 1068,
      "order": 1069,
      "AN": 1070,
      "ence": 1071,
      "ati": 1072,
      "ww": 1073,
      "ars": 1074,
      "itial": 1075,
      "((": 1076,
      "peci": 1077,
      "loss": 1078,
      "net": 1079,
      "rans": 1080,
      "ameters": 1081,
      "Ġla": 1082,
      "client": 1083,
      "DE": 1084,
      "annel": 1085,
      "AL": 1086,
      "iter": 1087,
      "alue": 1088,
      "its": 1089,
      "16": 1090,
      "Ġj": 1091,
      "sum": 1092,
      "Ġdo": 1093,
      "params": 1094,
      "rid": 1095,
      "status": 1096,
      "Ġz": 1097,
      "ache": 1098,
      "idth": 1099,
      "izer": 1100,
      "otal": 1101,
      "method": 1102,
      "Ġ!": 1103,
      "ele": 1104,
      "****": 1105,
      "{}": 1106,
      "api": 1107,
      "message": 1108,
      "new": 1109,
      "Ġtorch": 1110,
      "tra": 1111,
      "string": 1112,
      "Test": 1113,
      "scription": 1114,
      "tem": 1115,
      "Ġnode": 1116,
      "ler": 1117,
      "cle": 1118,
      "tive": 1119,
      "fix": 1120,
      "Ġ{'": 1121,
      "Ġsup": 1122,
      "umpy": 1123,
      "field": 1124,
      "old": 1125,
      "ĠCon": 1126,
      "Ġresponse": 1127,
      "fic": 1128,
      "ging": 1129,
      "ash": 1130,
      "Ġlabel": 1131,
      "UT": 1132,
      "Ġclass": 1133,
      "bin": 1134,
      "================": 1135,
      "default": 1136,
      "pos": 1137,
      "Ġso": 1138,
      "fil": 1139,
      "18": 1140,
      "Ġadd": 1141,
      "Ġuse": 1142,
      "AS": 1143,
      "Ġ!=": 1144,
      "ait": 1145,
      "uld": 1146,
      "trans": 1147,
      "nd": 1148,
      "perty": 1149,
      "Ġapp": 1150,
      "icense": 1151,
      "TI": 1152,
      "ther": 1153,
      "15": 1154,
      "000": 1155,
      "ud": 1156,
      "amp": 1157,
      "Ġfil": 1158,
      "ature": 1159,
      "ies": 1160,
      "ures": 1161,
      "{'": 1162,
      "Ġopen": 1163,
      "'])": 1164,
      "Co": 1165,
      "mon": 1166,
      "md": 1167,
      "Ġ6": 1168,
      "ctory": 1169,
      "rect": 1170,
      "check": 1171,
      "inter": 1172,
      "move": 1173,
      "tle": 1174,
      "float": 1175,
      "Ġcreate": 1176,
      "Ġper": 1177,
      "Res": 1178,
      "Ġ|": 1179,
      "ib": 1180,
      "process": 1181,
      "length": 1182,
      "ual": 1183,
      "Ġ['": 1184,
      "ptional": 1185,
      "Par": 1186,
      "ix": 1187,
      "pa": 1188,
      "try": 1189,
      "ments": 1190,
      "Ġcheck": 1191,
      "ariable": 1192,
      "rc": 1193,
      "Ġdate": 1194,
      "so": 1195,
      "RO": 1196,
      "frame": 1197,
      "Ġobject": 1198,
      "ulti": 1199,
      "pl": 1200,
      "Ġtf": 1201,
      "List": 1202,
      "his": 1203,
      "Ġstart": 1204,
      "unc": 1205,
      "ef": 1206,
      "Id": 1207,
      "NAME": 1208,
      "Ġjson": 1209,
      "box": 1210,
      "models": 1211,
      "clo": 1212,
      "resh": 1213,
      "values": 1214,
      "obj": 1215,
      "ps": 1216,
      "ties": 1217,
      "ach": 1218,
      "Ġne": 1219,
      "Ġmodels": 1220,
      "lobal": 1221,
      "local": 1222,
      "Ġdict": 1223,
      "MA": 1224,
      "ĠQ": 1225,
      "tes": 1226,
      "Ġfunction": 1227,
      "attr": 1228,
      "Ġrun": 1229,
      "auth": 1230,
      "...": 1231,
      "raw": 1232,
      "Ġfield": 1233,
      "opy": 1234,
      "do": 1235,
      "Ġwill": 1236,
      "exp": 1237,
      "Ke": 1238,
      "]]": 1239,
      "filter": 1240,
      "ĊĠĠĠĠĊĠĠĠ": 1241,
      "idx": 1242,
      "ĠEx": 1243,
      "jang": 1244,
      "Ġcan": 1245,
      "Ch": 1246,
      "be": 1247,
      "xd": 1248,
      "target": 1249,
      "04": 1250,
      "čĊč": 1251,
      "Ġtrain": 1252,
      "sample": 1253,
      "color": 1254,
      "33": 1255,
      "Ġtext": 1256,
      "parse": 1257,
      "IC": 1258,
      "olu": 1259,
      "pected": 1260,
      "response": 1261,
      "uple": 1262,
      "Ġbu": 1263,
      "=[": 1264,
      "step": 1265,
      "uc": 1266,
      "call": 1267,
      "dim": 1268,
      "--------------------------------": 1269,
      "jango": 1270,
      "quired": 1271,
      "Ġparam": 1272,
      "cord": 1273,
      "utils": 1274,
      "tern": 1275,
      "Ġindex": 1276,
      "Ġnumber": 1277,
      "ude": 1278,
      "ound": 1279,
      "Ġ8": 1280,
      "Ġend": 1281,
      "Ġtarget": 1282,
      "env": 1283,
      "ĠLicense": 1284,
      "ctions": 1285,
      "Ġsys": 1286,
      "Ġerror": 1287,
      "ateg": 1288,
      "tings": 1289,
      "indow": 1290,
      "55": 1291,
      "Ġurl": 1292,
      "Ġmessage": 1293,
      "batch": 1294,
      "14": 1295,
      "inal": 1296,
      "use": 1297,
      "Ġmin": 1298,
      "17": 1299,
      "ran": 1300,
      ".\"\"\"": 1301,
      "yst": 1302,
      "Ġhelp": 1303,
      "Ġdf": 1304,
      "Ġparser": 1305,
      "ĊĠĠĠĠĠĠĠĠĠ": 1306,
      "Ġisinstance": 1307,
      "table": 1308,
      "token": 1309,
      "Ġsp": 1310,
      "title": 1311,
      "item": 1312,
      "File": 1313,
      "19": 1314,
      "mail": 1315,
      "tro": 1316,
      "space": 1317,
      "Ġhas": 1318,
      "]:": 1319,
      "En": 1320,
      "ids": 1321,
      "Ġfloat": 1322,
      "Ġmethod": 1323,
      "bug": 1324,
      "Set": 1325,
      "Ġmat": 1326,
      "man": 1327,
      "IL": 1328,
      "stra": 1329,
      "################################": 1330,
      "rix": 1331,
      "Ġver": 1332,
      "mbda": 1333,
      "ition": 1334,
      "ton": 1335,
      "24": 1336,
      "Ġli": 1337,
      "ormal": 1338,
      "of": 1339,
      "items": 1340,
      "=(": 1341,
      "act": 1342,
      "Ġcurrent": 1343,
      "Ġ10": 1344,
      "led": 1345,
      "ost": 1346,
      "Ġtemp": 1347,
      "ain": 1348,
      "Ġ'''": 1349,
      "https": 1350,
      "html": 1351,
      "Ġstat": 1352,
      "wait": 1353,
      "Se": 1354,
      "Key": 1355,
      "Model": 1356,
      "13": 1357,
      "event": 1358,
      "older": 1359,
      "Ġplt": 1360,
      "\"),": 1361,
      "select": 1362,
      "ward": 1363,
      "PI": 1364,
      "Me": 1365,
      "ref": 1366,
      "img": 1367,
      "ĊĊĠ": 1368,
      "AC": 1369,
      "Ġstate": 1370,
      "cent": 1371,
      "pri": 1372,
      "command": 1373,
      "Ġ]": 1374,
      "lat": 1375,
      "Ġspeci": 1376,
      "ension": 1377,
      "lete": 1378,
      "ding": 1379,
      "save": 1380,
      "Ġ7": 1381,
      "zer": 1382,
      "Ġrow": 1383,
      "ync": 1384,
      "ĠReturn": 1385,
      "50": 1386,
      "ong": 1387,
      "cy": 1388,
      "orted": 1389,
      "Ser": 1390,
      "tim": 1391,
      "Ġvalid": 1392,
      "Ġfe": 1393,
      "ystem": 1394,
      "86": 1395,
      "sing": 1396,
      "ream": 1397,
      "tin": 1398,
      "ten": 1399,
      "andler": 1400,
      "[:,": 1401,
      "})": 1402,
      "Ġim": 1403,
      "vis": 1404,
      "number": 1405,
      "Ġsc": 1406,
      "34": 1407,
      "Ġnumpy": 1408,
      "ulum": 1409,
      "atures": 1410,
      "dataset": 1411,
      "Str": 1412,
      "nect": 1413,
      "30": 1414,
      "Ġvalues": 1415,
      "content": 1416,
      "Ar": 1417,
      "doc": 1418,
      "mask": 1419,
      "Ġtrans": 1420,
      "ED": 1421,
      "ĠX": 1422,
      "','": 1423,
      "eta": 1424,
      "Ġfa": 1425,
      "ĊĠĠĠĠĠĠĠĠĠĠĠĠĠĠĠĠĠĠĠĠĠĠĠĠĠĠĠĠĠĠĠĠĠĠĠĠĠĠĠĠ": 1426,
      "ich": 1427,
      "spe": 1428,
      "Ġlogging": 1429,
      "Ġext": 1430,
      "77": 1431,
      "ulumi": 1432,
      ")),": 1433,
      "mark": 1434,
      "ont": 1435,
      "Ġsuper": 1436,
      "ĠThis": 1437,
      "Ġevent": 1438,
      "Ġbase": 1439,
      "width": 1440,
      "sk": 1441,
      "task": 1442,
      "uration": 1443,
      "Ġ},": 1444,
      "Di": 1445,
      "mission": 1446,
      "block": 1447,
      "'))": 1448,
      "ĊĠĠĠĠĠĠĠĠĠĠĠĠ": 1449,
      "Ġpos": 1450,
      "head": 1451,
      "host": 1452,
      "range": 1453,
      "files": 1454,
      "property": 1455,
      "igh": 1456,
      "Ġad": 1457,
      "rence": 1458,
      "UR": 1459,
      "nn": 1460,
      ")))": 1461,
      "keys": 1462,
      "face": 1463,
      "ING": 1464,
      "ors": 1465,
      "tiv": 1466,
      "uto": 1467,
      "scal": 1468,
      "Ġmo": 1469,
      "column": 1470,
      "weight": 1471,
      "ick": 1472,
      "``": 1473,
      "current": 1474,
      "oth": 1475,
      "LO": 1476,
      "lable": 1477,
      "ET": 1478,
      "CO": 1479,
      "ql": 1480,
      "Ġsize": 1481,
      "go": 1482,
      ">>": 1483,
      "utton": 1484,
      "context": 1485,
      "ner": 1486,
      "Ġstring": 1487,
      "22": 1488,
      "var": 1489,
      "ody": 1490,
      "100": 1491,
      "module": 1492,
      "names": 1493,
      "the": 1494,
      "ĊĠĠĠĠĠĠĠĠĠĠĠĠĠĠĠĠĠĠĠĠĠĠĠĠĠĠĠĠĠĠĠĠĠĠĠĠĠĠĠĠĠĠĠĠĠĠĠĠ": 1495,
      "hould": 1496,
      "sg": 1497,
      "ĠIf": 1498,
      "mbed": 1499,
      "80": 1500,
      "my": 1501,
      "Ġ[\"": 1502,
      "ackage": 1503,
      "channel": 1504,
      "Ġlin": 1505,
      "Ġdb": 1506,
      "ware": 1507,
      "uid": 1508,
      "find": 1509,
      "idget": 1510,
      "fied": 1511,
      "device": 1512,
      "ai": 1513,
      "msg": 1514,
      "Ġreg": 1515,
      "čĊĠĠĠĠĠĠĠĠĠĠĠĠĠĠĠ": 1516,
      "ĊĠĠĠĠĠĠĠĠĠĠĠĠĠĠĠĠĠĠĠĠĠĠĠĠĠĠĠĠĠĠĠ": 1517,
      "ION": 1518,
      "Ġitem": 1519,
      "top": 1520,
      "CH": 1521,
      "ols": 1522,
      "Ġq": 1523,
      "Ġone": 1524,
      "Ġupdate": 1525,
      "onent": 1526,
      "Ġcal": 1527,
      "here": 1528,
      "root": 1529,
      "\"],": 1530,
      "Ġcode": 1531,
      "Ġgener": 1532,
      "56": 1533,
      "ates": 1534,
      "AD": 1535,
      "Ġbatch": 1536,
      "rectory": 1537,
      "Col": 1538,
      "Ġup": 1539,
      "cor": 1540,
      "csv": 1541,
      "Ġread": 1542,
      "random": 1543,
      "flow": 1544,
      "Time": 1545,
      "cre": 1546,
      "ern": 1547,
      "ome": 1548,
      "Ġused": 1549,
      "utes": 1550,
      "rop": 1551,
      "Ġinter": 1552,
      "cat": 1553,
      "201": 1554,
      "irst": 1555,
      "Ġother": 1556,
      "location": 1557,
      "To": 1558,
      "'s": 1559,
      "ld": 1560,
      "nection": 1561,
      "source": 1562,
      "mean": 1563,
      "03": 1564,
      "05": 1565,
      "Ġshould": 1566,
      "sche": 1567,
      "pass": 1568,
      "close": 1569,
      "ager": 1570,
      "Ġpa": 1571,
      "open": 1572,
      "ister": 1573,
      "ĠReturns": 1574,
      "Ġ--": 1575,
      "org": 1576,
      "Ġload": 1577,
      "ists": 1578,
      "Ġ9": 1579,
      "lan": 1580,
      "ĠK": 1581,
      "ting": 1582,
      "Ġ),": 1583,
      "IS": 1584,
      "adata": 1585,
      "Ġcommand": 1586,
      "mary": 1587,
      ")]": 1588,
      "utf": 1589,
      "ĊĠĠĠĠĠĠĠĠĊĠĠĠĠĠĠĠ": 1590,
      "uni": 1591,
      "types": 1592,
      "OT": 1593,
      "parser": 1594,
      "post": 1595,
      "mode": 1596,
      "Un": 1597,
      "'):": 1598,
      "Ġgra": 1599,
      "Ġparams": 1600,
      "~~": 1601,
      "Ġ{\"": 1602,
      "session": 1603,
      "[-": 1604,
      "Ġmock": 1605,
      "ĠSe": 1606,
      "Ġlo": 1607,
      "les": 1608,
      "Ġlogger": 1609,
      "ative": 1610,
      "čĊčĊĠĠĠ": 1611,
      "Ġyou": 1612,
      "ĠUn": 1613,
      "ä¸": 1614,
      "poch": 1615,
      "graph": 1616,
      "Po": 1617,
      "initial": 1618,
      "gh": 1619,
      "alueError": 1620,
      "ization": 1621,
      "PO": 1622,
      "objects": 1623,
      "ĠY": 1624,
      "Ġcontext": 1625,
      "Ġversion": 1626,
      "ally": 1627,
      "Ġtra": 1628,
      "Ġarray": 1629,
      "fir": 1630,
      "last": 1631,
      "clude": 1632,
      "bot": 1633,
      "ĠOptional": 1634,
      "debug": 1635,
      "Ġrandom": 1636,
      "Ġval": 1637,
      "Ġglobal": 1638,
      "Ġ,": 1639,
      "idd": 1640,
      "ĠAr": 1641,
      "Input": 1642,
      "job": 1643,
      "Ġquery": 1644,
      "Ġinstance": 1645,
      "Ġwhich": 1646,
      "ENT": 1647,
      "ustom": 1648,
      "Ġcontain": 1649,
      "ename": 1650,
      "Ġpd": 1651,
      "cli": 1652,
      "Ċĉĉĉ": 1653,
      "06": 1654,
      "ng": 1655,
      "Ġeach": 1656,
      "Ġcall": 1657,
      "als": 1658,
      "Ġcolumn": 1659,
      "tribute": 1660,
      "not": 1661,
      "exec": 1662,
      "asses": 1663,
      "gener": 1664,
      "IG": 1665,
      "Ġgroup": 1666,
      "gram": 1667,
      "AB": 1668,
      "cul": 1669,
      "Ġar": 1670,
      "Ġ``": 1671,
      "viron": 1672,
      "serv": 1673,
      "Get": 1674,
      "level": 1675,
      "layers": 1676,
      "www": 1677,
      "ized": 1678,
      "De": 1679,
      "rt": 1680,
      "Ġhave": 1681,
      "posi": 1682,
      "io": 1683,
      "func": 1684,
      "link": 1685,
      "labels": 1686,
      "Ġpoint": 1687,
      "copy": 1688,
      "bose": 1689,
      "entry": 1690,
      "Ġobj": 1691,
      "err": 1692,
      "Ġoption": 1693,
      "tag": 1694,
      "Ġaction": 1695,
      "MP": 1696,
      "off": 1697,
      "Bo": 1698,
      "ference": 1699,
      "men": 1700,
      "Ġfiles": 1701,
      "Ġsample": 1702,
      "Ġarg": 1703,
      "Text": 1704,
      "Ġdatetime": 1705,
      "page": 1706,
      "quence": 1707,
      "au": 1708,
      "DO": 1709,
      "rel": 1710,
      "75": 1711,
      "uster": 1712,
      "fier": 1713,
      "round": 1714,
      "project": 1715,
      "Ġexpected": 1716,
      "Ġ],": 1717,
      "replace": 1718,
      "lower": 1719,
      "28": 1720,
      "ĊĊĠĠĠĠĠĠĠĠĠĠĠĠĠĠĠ": 1721,
      "CT": 1722,
      "Ġonly": 1723,
      "Ġwhile": 1724,
      "function": 1725,
      "ĠTest": 1726,
      "Ġclient": 1727,
      "AG": 1728,
      "lag": 1729,
      "delete": 1730,
      "lication": 1731,
      "points": 1732,
      "server": 1733,
      "UL": 1734,
      "Ġdataset": 1735,
      "Ġformat": 1736,
      "iven": 1737,
      "down": 1738,
      "bound": 1739,
      "tf": 1740,
      "rap": 1741,
      "Ġunder": 1742,
      "licy": 1743,
      "sco": 1744,
      "Ċĉĉĉĉ": 1745,
      "Ġcount": 1746,
      "std": 1747,
      "Ġcopy": 1748,
      "'].": 1749,
      "Ġele": 1750,
      "ning": 1751,
      "gen": 1752,
      "Ġcolor": 1753,
      "PE": 1754,
      "44": 1755,
      "stars": 1756,
      "29": 1757,
      "ble": 1758,
      "Ġcor": 1759,
      "sent": 1760,
      "ns": 1761,
      "grid": 1762,
      "tadata": 1763,
      "sign": 1764,
      "89": 1765,
      "duct": 1766,
      "ze": 1767,
      "reak": 1768,
      "ui": 1769,
      "ca": 1770,
      "ear": 1771,
      "Config": 1772,
      "tail": 1773,
      "oname": 1774,
      "36": 1775,
      "ãģ": 1776,
      "Ġfirst": 1777,
      "ĠJ": 1778,
      "arning": 1779,
      "Vi": 1780,
      "txt": 1781,
      "day": 1782,
      "'t": 1783,
      "Ġpri": 1784,
      "vert": 1785,
      "Ġbool": 1786,
      "*-": 1787,
      "Ġ<=": 1788,
      "template": 1789,
      "':{'": 1790,
      "reponame": 1791,
      "Ġdjango": 1792,
      "ive": 1793,
      "Ġ(\"": 1794,
      "cf": 1795,
      "vid": 1796,
      "gr": 1797,
      "ernel": 1798,
      "vector": 1799,
      "ĠList": 1800,
      "place": 1801,
      "35": 1802,
      "search": 1803,
      "vo": 1804,
      "dep": 1805,
      "Ġag": 1806,
      "gn": 1807,
      "Ġawait": 1808,
      "Ġdoc": 1809,
      "Ġimg": 1810,
      "pop": 1811,
      "Ġsource": 1812,
      "stamp": 1813,
      ")):": 1814,
      "********": 1815,
      "Ġwork": 1816,
      "pha": 1817,
      "description": 1818,
      "over": 1819,
      "tinue": 1820,
      "coder": 1821,
      "ĠPar": 1822,
      "dition": 1823,
      "cp": 1824,
      "show": 1825,
      "Lo": 1826,
      "uage": 1827,
      "Ġ-*-": 1828,
      "]))": 1829,
      "tx": 1830,
      "ice": 1831,
      "('\\": 1832,
      "uccess": 1833,
      "Ġresults": 1834,
      "results": 1835,
      "fy": 1836,
      "ponse": 1837,
      "Ġnet": 1838,
      "Form": 1839,
      "08": 1840,
      "options": 1841,
      "'},": 1842,
      "logger": 1843,
      "metri": 1844,
      "vide": 1845,
      "total": 1846,
      "ell": 1847,
      "']['": 1848,
      "07": 1849,
      "Ġrequired": 1850,
      "ĠException": 1851,
      "Ġaxis": 1852,
      "DI": 1853,
      "now": 1854,
      "cc": 1855,
      "match": 1856,
      "store": 1857,
      "Ð¾": 1858,
      "Path": 1859,
      "igr": 1860,
      "ĠValueError": 1861,
      "Ġtable": 1862,
      "26": 1863,
      "strip": 1864,
      "Ġmodule": 1865,
      "Ġdtype": 1866,
      "ï¼": 1867,
      "ating": 1868,
      "anguage": 1869,
      "req": 1870,
      "ins": 1871,
      "Base": 1872,
      "User": 1873,
      "ping": 1874,
      "Frame": 1875,
      "Ġcv": 1876,
      "send": 1877,
      "\"))": 1878,
      "HE": 1879,
      "Ġmust": 1880,
      "ół": 1881,
      "score": 1882,
      "Ġmain": 1883,
      "ches": 1884,
      "88": 1885,
      "ĠPro": 1886,
      "Cl": 1887,
      "Ġenum": 1888,
      "ched": 1889,
      "Ġtotal": 1890,
      "Ġmsg": 1891,
      "ob": 1892,
      "lines": 1893,
      "ous": 1894,
      "Ġshape": 1895,
      "uted": 1896,
      "cond": 1897,
      "andle": 1898,
      "Ġstatus": 1899,
      "Value": 1900,
      "lease": 1901,
      "09": 1902,
      "del": 1903,
      "struct": 1904,
      "Ġwhen": 1905,
      "lambda": 1906,
      "Ġnn": 1907,
      "lean": 1908,
      "Ġmatch": 1909,
      "nt": 1910,
      "Ġmay": 1911,
      "UN": 1912,
      "Ġdim": 1913,
      "ĠSt": 1914,
      "splay": 1915,
      "(_": 1916,
      "Up": 1917,
      "27": 1918,
      "Ġcontent": 1919,
      "du": 1920,
      "ped": 1921,
      "Exception": 1922,
      "conv": 1923,
      "Ġmake": 1924,
      "Ġkwargs": 1925,
      "Ġfilename": 1926,
      "Ġexp": 1927,
      "parent": 1928,
      "={": 1929,
      "sor": 1930,
      "Log": 1931,
      "axis": 1932,
      "Ġ{},": 1933,
      "cho": 1934,
      "xy": 1935,
      "::": 1936,
      "Ġtask": 1937,
      "mock": 1938,
      "TR": 1939,
      "Ġany": 1940,
      "\"])": 1941,
      "Ġback": 1942,
      "build": 1943,
      "ical": 1944,
      "Ġcontinue": 1945,
      "Ġsk": 1946,
      "Ġtag": 1947,
      "ential": 1948,
      "Ġstep": 1949,
      ":`": 1950,
      "Add": 1951,
      "Ġmode": 1952,
      "teger": 1953,
      "cri": 1954,
      "Ġover": 1955,
      "riter": 1956,
      "left": 1957,
      "unk": 1958,
      "Ġ'/": 1959,
      "peri": 1960,
      "fore": 1961,
      "connect": 1962,
      "ffer": 1963,
      "Ġ>=": 1964,
      "bar": 1965,
      "84": 1966,
      "cls": 1967,
      "ises": 1968,
      "200": 1969,
      "The": 1970,
      "dices": 1971,
      "String": 1972,
      "Ġ>>>": 1973,
      "straint": 1974,
      "sys": 1975,
      "fter": 1976,
      "address": 1977,
      "ias": 1978,
      "US": 1979,
      "Ġdistri": 1980,
      "rate": 1981,
      "attern": 1982,
      "ĠOR": 1983,
      "make": 1984,
      "prefix": 1985,
      "python": 1986,
      "itle": 1987,
      "Ġhead": 1988,
      "dic": 1989,
      "iled": 1990,
      "66": 1991,
      "unit": 1992,
      "Ġtoken": 1993,
      "23": 1994,
      "View": 1995,
      "Ġgiven": 1996,
      "HO": 1997,
      "fields": 1998,
      "Node": 1999,
      "game": 2000,
      "rit": 2001,
      "queue": 2002,
      "ĠAn": 2003,
      "Ġprocess": 2004,
      "Ac": 2005,
      "Ġloss": 2006,
      "util": 2007,
      "No": 2008,
      "Ġfilter": 2009,
      "Ġplot": 2010,
      "service": 2011,
      "ĠIN": 2012,
      "ategory": 2013,
      "settings": 2014,
      "cache": 2015,
      "XXXX": 2016,
      "ĠAN": 2017,
      "wo": 2018,
      "first": 2019,
      "Ġinst": 2020,
      "Com": 2021,
      "Ġdescription": 2022,
      "ake": 2023,
      "olution": 2024,
      "Ġorder": 2025,
      "change": 2026,
      "matrix": 2027,
      "formation": 2028,
      "hy": 2029,
      "TT": 2030,
      "ĠCo": 2031,
      "Ġword": 2032,
      "src": 2033,
      "Ġlast": 2034,
      "zeros": 2035,
      "21": 2036,
      "ĠData": 2037,
      "Ġform": 2038,
      ".\")": 2039,
      "Ð°": 2040,
      "prot": 2041,
      "board": 2042,
      "ility": 2043,
      "sv": 2044,
      "features": 2045,
      "ics": 2046,
      "Ġsave": 2047,
      "scale": 2048,
      "wh": 2049,
      "(*": 2050,
      "Ġsum": 2051,
      "ify": 2052,
      "tributes": 2053,
      "eval": 2054,
      "erate": 2055,
      "cmd": 2056,
      "Ġpython": 2057,
      "Ġqu": 2058,
      "Ġoper": 2059,
      "Ġbreak": 2060,
      "Ġargument": 2061,
      "perties": 2062,
      "Ġ'.": 2063,
      "next": 2064,
      "ĊĠĠĠĠĠĠĠĠĠĠĠĠĠ": 2065,
      "Object": 2066,
      "Parser": 2067,
      "cket": 2068,
      "iss": 2069,
      "ftware": 2070,
      "Ġed": 2071,
      "script": 2072,
      "bl": 2073,
      "verse": 2074,
      "Ġ100": 2075,
      "ster": 2076,
      "pk": 2077,
      "Ġauth": 2078,
      "tensor": 2079,
      "ie": 2080,
      "Ġframe": 2081,
      "Ġdep": 2082,
      "EST": 2083,
      "lection": 2084,
      "ultip": 2085,
      "'''": 2086,
      "Num": 2087,
      "39": 2088,
      "email": 2089,
      "ush": 2090,
      "(-": 2091,
      "Ġiter": 2092,
      "serial": 2093,
      "ctionary": 2094,
      "pred": 2095,
      "limit": 2096,
      "ĠPy": 2097,
      "ĠÐ": 2098,
      "Dict": 2099,
      "ose": 2100,
      "Ġfound": 2101,
      "ible": 2102,
      "37": 2103,
      "Ġob": 2104,
      "FI": 2105,
      "yle": 2106,
      "Ġass": 2107,
      "wer": 2108,
      "fication": 2109,
      "reen": 2110,
      "Ġdevice": 2111,
      "45": 2112,
      "Ġ&": 2113,
      "Ġblock": 2114,
      "imum": 2115,
      "dump": 2116,
      "ðŁ": 2117,
      "85": 2118,
      "parameters": 2119,
      "Ġvariable": 2120,
      "CON": 2121,
      "lug": 2122,
      "river": 2123,
      "Ġ201": 2124,
      "olume": 2125,
      "\\\\": 2126,
      "EX": 2127,
      "pc": 2128,
      "Ġusing": 2129,
      "datetime": 2130,
      "true": 2131,
      "stack": 2132,
      "Ðµ": 2133,
      "Ġpulumi": 2134,
      "height": 2135,
      "At": 2136,
      "Ġweight": 2137,
      "mt": 2138,
      "fn": 2139,
      "orage": 2140,
      "Ġnext": 2141,
      "/',": 2142,
      "]['": 2143,
      "folder": 2144,
      "unter": 2145,
      "Case": 2146,
      "idden": 2147,
      "ĊĠĠĠĠĠĠĠĠĠĠĠĠĠĠĠĠĠĠĠĠĠĠĠĠĠĠĠĠĠĠĠĠĠĠĠ": 2148,
      "]),": 2149,
      "Ġfind": 2150,
      "Ġmap": 2151,
      "Ġinitial": 2152,
      "Ġuti": 2153,
      "conf": 2154,
      "annot": 2155,
      "ocket": 2156,
      "pol": 2157,
      "65": 2158,
      "({": 2159,
      "Stat": 2160,
      "ffe": 2161,
      "trol": 2162,
      "Ġchar": 2163,
      "any": 2164,
      "Le": 2165,
      "\"):": 2166,
      "ĠGet": 2167,
      "Ġinto": 2168,
      "remove": 2169,
      "Ġsession": 2170,
      "Ġmask": 2171,
      "Widget": 2172,
      "header": 2173,
      "ract": 2174,
      "patch": 2175,
      "Ġuni": 2176,
      "static": 2177,
      "anti": 2178,
      "dis": 2179,
      "char": 2180,
      "Ġscal": 2181,
      "Ġenumerate": 2182,
      "</": 2183,
      "------": 2184,
      "Request": 2185,
      "ATE": 2186,
      "angle": 2187,
      "ółģ": 2188,
      "option": 2189,
      ".,": 2190,
      "coding": 2191,
      "Ġlocal": 2192,
      "Response": 2193,
      "transform": 2194,
      "Ġunit": 2195,
      "TO": 2196,
      "================================": 2197,
      "position": 2198,
      "ants": 2199,
      "aw": 2200,
      "Ġparameters": 2201,
      "EL": 2202,
      "Ġbuild": 2203,
      "password": 2204,
      "ĠDi": 2205,
      "79": 2206,
      "norm": 2207,
      "Ġverbose": 2208,
      "variable": 2209,
      "fit": 2210,
      "mber": 2211,
      "exists": 2212,
      "Ġlength": 2213,
      "ayload": 2214,
      "ĊĠĠĠĠĠĠĠĠĠĠ": 2215,
      "Ġlabels": 2216,
      "coord": 2217,
      "username": 2218,
      "(__": 2219,
      "Ġright": 2220,
      "ources": 2221,
      "hed": 2222,
      "TH": 2223,
      "Ġdel": 2224,
      "body": 2225,
      "seq": 2226,
      "ESS": 2227,
      "ailable": 2228,
      "pub": 2229,
      "ful": 2230,
      "ĊĠĠĠĠĠĠĠĠĠĠĠĠĠĠĠĠĠĠĠĠ": 2231,
      "40": 2232,
      "Ġoptions": 2233,
      "60": 2234,
      "edge": 2235,
      "ĊĊĊĠĠĠ": 2236,
      "FF": 2237,
      "network": 2238,
      "efault": 2239,
      "mer": 2240,
      "sup": 2241,
      "Ġpage": 2242,
      "torch": 2243,
      "Char": 2244,
      "entity": 2245,
      "itor": 2246,
      "const": 2247,
      "Ġdoes": 2248,
      "KE": 2249,
      "Fa": 2250,
      "account": 2251,
      "Ġparse": 2252,
      "ater": 2253,
      "ency": 2254,
      "Ġchange": 2255,
      "ene": 2256,
      "classes": 2257,
      "Ġ--------": 2258,
      "etch": 2259,
      "TY": 2260,
      "Ġproject": 2261,
      "cu": 2262,
      "enter": 2263,
      "').": 2264,
      "AP": 2265,
      "Lay": 2266,
      "verage": 2267,
      "IP": 2268,
      "ĠTO": 2269,
      "Ġty": 2270,
      "Image": 2271,
      "Ġfields": 2272,
      "reshold": 2273,
      "Not": 2274,
      "rand": 2275,
      "tmp": 2276,
      "sw": 2277,
      "leep": 2278,
      "Ġ[],": 2279,
      "Ġserver": 2280,
      "case": 2281,
      "Ġroot": 2282,
      "Ġchannel": 2283,
      "ymb": 2284,
      "Ġ'<": 2285,
      "stream": 2286,
      "spec": 2287,
      "Message": 2288,
      "Ġoff": 2289,
      "Ġ20": 2290,
      "normal": 2291,
      "Ġport": 2292,
      "Ġtuple": 2293,
      "ersion": 2294,
      "ãĤ": 2295,
      "peline": 2296,
      "abs": 2297,
      "State": 2298,
      "epoch": 2299,
      "license": 2300,
      "ators": 2301,
      "Ġph": 2302,
      "nder": 2303,
      "cv": 2304,
      "FA": 2305,
      "ride": 2306,
      "Ġgo": 2307,
      "abled": 2308,
      "system": 2309,
      "\",\"": 2310,
      "Ġab": 2311,
      "exception": 2312,
      "Ġsign": 2313,
      "MO": 2314,
      "Ġlimit": 2315,
      "ling": 2316,
      "embed": 2317,
      "pack": 2318,
      "Ġtensor": 2319,
      "Sh": 2320,
      "SI": 2321,
      "čĊčĊĠĠĠĠĠĠĠ": 2322,
      "ents": 2323,
      "author": 2324,
      "Comp": 2325,
      "let": 2326,
      "resource": 2327,
      "ĊĠĠĠĠĠĠĠĠĠĠĠĠĠĠĠĠĠ": 2328,
      "ollow": 2329,
      "Ġcls": 2330,
      "Ġcase": 2331,
      "can": 2332,
      "95": 2333,
      "Ġtitle": 2334,
      "Ġparent": 2335,
      "Ġbut": 2336,
      "Ġctx": 2337,
      "Ġtop": 2338,
      "admin": 2339,
      "Date": 2340,
      ".')": 2341,
      "record": 2342,
      "96": 2343,
      "('--": 2344,
      "Ġav": 2345,
      "CL": 2346,
      "Ġret": 2347,
      "ĠSet": 2348,
      "way": 2349,
      "ux": 2350,
      "abel": 2351,
      "('/": 2352,
      "side": 2353,
      "Ġexist": 2354,
      "ticle": 2355,
      "Ġ##": 2356,
      "ĠĠĠĠĠĠĠĠĠĠĠĠĠĠĠĠĠĠĠĠĠĠĠĠĠĠĠĠĠĠĠĠ": 2357,
      "Out": 2358,
      "expr": 2359,
      "fl": 2360,
      "Ġlambda": 2361,
      "Create": 2362,
      "fer": 2363,
      "dist": 2364,
      "87": 2365,
      "samples": 2366,
      "TION": 2367,
      "columns": 2368,
      "buted": 2369,
      "ĠArgs": 2370,
      "other": 2371,
      "Ġrequests": 2372,
      "Ġneed": 2373,
      "åı": 2374,
      "Ġ...": 2375,
      "stop": 2376,
      "Ġfig": 2377,
      "nodes": 2378,
      "gment": 2379,
      "Ġinfo": 2380,
      "ĊĠĠĠĠĠĠĠĠĠĠĠĠĠĠĠĠĠĠĠĠĠĠĠĠĠ": 2381,
      "ĠUser": 2382,
      "headers": 2383,
      "Ġorig": 2384,
      "Ġ):": 2385,
      "ļĦ": 2386,
      "ĠCreate": 2387,
      "Ġdest": 2388,
      "QL": 2389,
      "ide": 2390,
      "Ġ\",": 2391,
      "environ": 2392,
      "pr": 2393,
      "çļĦ": 2394,
      "Ġhttp": 2395,
      "Ġserial": 2396,
      "hash": 2397,
      "ĠOF": 2398,
      "ĊĠĠ": 2399,
      "gin": 2400,
      "ĊĠĠĠĠĠĠĠĠĠĠĠĠĠĠ": 2401,
      "tree": 2402,
      ")[": 2403,
      "register": 2404,
      "active": 2405,
      "feature": 2406,
      "conds": 2407,
      "plt": 2408,
      "direct": 2409,
      "EMA": 2410,
      "ĠNo": 2411,
      "dot": 2412,
      "usr": 2413,
      "Ġview": 2414,
      "ink": 2415,
      "execute": 2416,
      "ÑĤ": 2417,
      "ĠType": 2418,
      "very": 2419,
      "hel": 2420,
      "window": 2421,
      "Al": 2422,
      "An": 2423,
      "offset": 2424,
      "'][": 2425,
      "ĠRes": 2426,
      "adding": 2427,
      "su": 2428,
      "ctx": 2429,
      "PAT": 2430,
      "rection": 2431,
      "ved": 2432,
      "Class": 2433,
      "Ġwidth": 2434,
      "part": 2435,
      "child": 2436,
      "Ġexec": 2437,
      "Ġlevel": 2438,
      "ĊĠĠĠĠĠĠĠĠĠĠĠĠĠĠĠĠĠĠĠĠĠ": 2439,
      "swith": 2440,
      "gine": 2441,
      ":]": 2442,
      "stru": 2443,
      "ĠDe": 2444,
      "Ġcod": 2445,
      "uture": 2446,
      "Ġhost": 2447,
      "orig": 2448,
      "inst": 2449,
      "Ġtri": 2450,
      "App": 2451,
      "pulumi": 2452,
      "words": 2453,
      "exit": 2454,
      "zh": 2455,
      "ĠCON": 2456,
      "Ġselect": 2457,
      "47": 2458,
      "cap": 2459,
      "ĊĠĠĠĠĠĠ": 2460,
      "mod": 2461,
      "tools": 2462,
      "numpy": 2463,
      "Ð¸": 2464,
      "Ġeval": 2465,
      "Ġgraph": 2466,
      "only": 2467,
      "package": 2468,
      "domain": 2469,
      "Ġfl": 2470,
      "Ġresource": 2471,
      "pen": 2472,
      "ãĥ": 2473,
      "ĠID": 2474,
      "ogle": 2475,
      "FT": 2476,
      ">',": 2477,
      "Ġbot": 2478,
      "vices": 2479,
      "Size": 2480,
      "Ġ'__": 2481,
      "ready": 2482,
      "Ġsettings": 2483,
      "31": 2484,
      "fs": 2485,
      "Box": 2486,
      "images": 2487,
      "UM": 2488,
      "sim": 2489,
      "metadata": 2490,
      "Sub": 2491,
      "Ġwas": 2492,
      "Info": 2493,
      "Ġenv": 2494,
      "bounds": 2495,
      "pec": 2496,
      "Ġrecord": 2497,
      "Ġmetri": 2498,
      "resp": 2499,
      "97": 2500,
      "delta": 2501,
      "Ġapi": 2502,
      "vision": 2503,
      "Ġ::": 2504,
      "hist": 2505,
      "has": 2506,
      "Ġ''": 2507,
      "inputs": 2508,
      "Ġsame": 2509,
      "cer": 2510,
      "Code": 2511,
      "Ġcoding": 2512,
      "sn": 2513,
      "Ad": 2514,
      "ORD": 2515,
      "acy": 2516,
      "weights": 2517,
      "lags": 2518,
      "kens": 2519,
      "rule": 2520,
      "Ġdirectory": 2521,
      "ASS": 2522,
      "Ġdefin": 2523,
      "ternal": 2524,
      "channels": 2525,
      "Ġlayer": 2526,
      "timizer": 2527,
      "Ġ',": 2528,
      "Ġallow": 2529,
      "38": 2530,
      "Ġwrite": 2531,
      "Ġwhere": 2532,
      "AM": 2533,
      "tails": 2534,
      "TTP": 2535,
      "handler": 2536,
      "____": 2537,
      "ĠMe": 2538,
      "auto": 2539,
      "meta": 2540,
      "opyright": 2541,
      "Bu": 2542,
      "CE": 2543,
      "chema": 2544,
      "Ġmy": 2545,
      "common": 2546,
      "ingle": 2547,
      "90": 2548,
      "Ġheader": 2549,
      "dev": 2550,
      "Client": 2551,
      "ĊĠĠĠĠĠĠĠĠĠĠĠĠĠĠĠĠĠĠĠĠĠĠ": 2552,
      "full": 2553,
      "9999": 2554,
      "Ġact": 2555,
      "TestCase": 2556,
      "dec": 2557,
      "Ġoptional": 2558,
      "book": 2559,
      "Ġidx": 2560,
      "INT": 2561,
      "uuid": 2562,
      "Ġrender": 2563,
      "čĊĉĉ": 2564,
      "Ġ\".": 2565,
      "Ġhttps": 2566,
      "=['": 2567,
      "57": 2568,
      "nown": 2569,
      "contain": 2570,
      "Ġimp": 2571,
      "He": 2572,
      "pytest": 2573,
      "Line": 2574,
      "lank": 2575,
      "sq": 2576,
      "bytes": 2577,
      "mory": 2578,
      "access": 2579,
      "xml": 2580,
      "ym": 2581,
      "tick": 2582,
      "manager": 2583,
      "Ġ\"/": 2584,
      "ik": 2585,
      "Ġbet": 2586,
      "missions": 2587,
      "Ġdis": 2588,
      "Ġpytest": 2589,
      "bit": 2590,
      "na": 2591,
      "atio": 2592,
      "ank": 2593,
      "Ġ200": 2594,
      "VER": 2595,
      "mented": 2596,
      "ĠĠĠĠĠĠĠĠĠĠĠĠ": 2597,
      "ular": 2598,
      "actions": 2599,
      "Return": 2600,
      "center": 2601,
      "keep": 2602,
      "itch": 2603,
      "åĪ": 2604,
      "rs": 2605,
      "']:": 2606,
      "67": 2607,
      "Ġpost": 2608,
      "OL": 2609,
      "alid": 2610,
      "grad": 2611,
      "medi": 2612,
      "bool": 2613,
      "Ġcoord": 2614,
      "Group": 2615,
      "initialize": 2616,
      "Qu": 2617,
      "ween": 2618,
      "ĠParameters": 2619,
      "Ġvis": 2620,
      "Ġthen": 2621,
      "login": 2622,
      "mpty": 2623,
      "čĊĠĠĠĠĠĠĠĠĠĠĠĠĠĠĠĠĠĠĠ": 2624,
      "uri": 2625,
      "\"{": 2626,
      "Ġdown": 2627,
      "#!": 2628,
      "lish": 2629,
      "igrations": 2630,
      "ba": 2631,
      "Ġnormal": 2632,
      "ker": 2633,
      "Item": 2634,
      "lip": 2635,
      "encode": 2636,
      "cell": 2637,
      "schema": 2638,
      "gest": 2639,
      "Ġ..": 2640,
      "ĠQt": 2641,
      "oper": 2642,
      "Ġparameter": 2643,
      "inary": 2644,
      "argv": 2645,
      "Ġref": 2646,
      "decode": 2647,
      "png": 2648,
      "~~~~": 2649,
      "ian": 2650,
      "example": 2651,
      "sig": 2652,
      "Ġheaders": 2653,
      "KEY": 2654,
      "Tensor": 2655,
      "Ġsome": 2656,
      "48": 2657,
      "Ġasync": 2658,
      "Ġshow": 2659,
      "Ġlines": 2660,
      "pool": 2661,
      "Py": 2662,
      "dio": 2663,
      "Handler": 2664,
      "reshape": 2665,
      "tests": 2666,
      "Ġmore": 2667,
      "anager": 2668,
      "stats": 2669,
      "tom": 2670,
      "Ġ'-": 2671,
      ").__": 2672,
      "PATH": 2673,
      "ithub": 2674,
      "Ġ16": 2675,
      "Ġspecified": 2676,
      "IM": 2677,
      "ĠĊĠĠĠĠĠĠĠ": 2678,
      "ither": 2679,
      "Trans": 2680,
      "Ġnames": 2681,
      "ï¼Į": 2682,
      "element": 2683,
      "asic": 2684,
      "Ġmath": 2685,
      "URL": 2686,
      "Ġcmd": 2687,
      "med": 2688,
      "DB": 2689,
      "Ġtemplate": 2690,
      "Ġutf": 2691,
      "OP": 2692,
      "CharField": 2693,
      "ross": 2694,
      "LL": 2695,
      "Reg": 2696,
      "play": 2697,
      "Ð¾Ð": 2698,
      "Ġyield": 2699,
      "sets": 2700,
      "comple": 2701,
      "Ġdistributed": 2702,
      "49": 2703,
      "Ġentry": 2704,
      "ugh": 2705,
      "EMAIL": 2706,
      "UP": 2707,
      "ATA": 2708,
      "Ġkernel": 2709,
      "indices": 2710,
      "Th": 2711,
      "proto": 2712,
      "Ġ----------": 2713,
      "Ġtyping": 2714,
      "Qt": 2715,
      "Ġ\"\"": 2716,
      "Ġfollow": 2717,
      "ĠWe": 2718,
      "else": 2719,
      "ĊĠĠĠĠĠĠĠĠĠĠĠĠĠĠĠĠĠĠ": 2720,
      "opt": 2721,
      "pu": 2722,
      "Ġopt": 2723,
      "\").": 2724,
      "API": 2725,
      "Ġ\"\\": 2726,
      "Ġpassword": 2727,
      "Ġsearch": 2728,
      "video": 2729,
      "ection": 2730,
      "59": 2731,
      "Ġtmp": 2732,
      "Event": 2733,
      "Ġter": 2734,
      "'}": 2735,
      "sort": 2736,
      "}/": 2737,
      "shot": 2738,
      "Net": 2739,
      "rot": 2740,
      "gt": 2741,
      "Ġpackage": 2742,
      "Ġ'\\": 2743,
      "Ġstd": 2744,
      "Ġtransform": 2745,
      "entifier": 2746,
      "troll": 2747,
      "cast": 2748,
      "Index": 2749,
      "Ġleft": 2750,
      "Ġclo": 2751,
      "52": 2752,
      "Run": 2753,
      "Result": 2754,
      "sa": 2755,
      "timestamp": 2756,
      "raph": 2757,
      "component": 2758,
      "]):": 2759,
      "Ġnetwork": 2760,
      "RAN": 2761,
      "lice": 2762,
      "Ġ'--": 2763,
      "Ġbox": 2764,
      "Check": 2765,
      "Ġposition": 2766,
      "Ġpi": 2767,
      "46": 2768,
      "Ġlib": 2769,
      "ĠSee": 2770,
      "\"][\"": 2771,
      "ĠAle": 2772,
      "dtype": 2773,
      "ero": 2774,
      "assertTrue": 2775,
      "gument": 2776,
      "}\"": 2777,
      "required": 2778,
      ",'": 2779,
      "tags": 2780,
      "mote": 2781,
      "year": 2782,
      "Ġexample": 2783,
      "Ġhere": 2784,
      "alog": 2785,
      "display": 2786,
      "Sp": 2787,
      "Ġsrc": 2788,
      "=-": 2789,
      "click": 2790,
      "Ġgrid": 2791,
      "ymbol": 2792,
      "Ġraw": 2793,
      "cies": 2794,
      "ason": 2795,
      "ulation": 2796,
      "Ġabs": 2797,
      "diff": 2798,
      "ek": 2799,
      "cts": 2800,
      "amer": 2801,
      "imple": 2802,
      "Ġrel": 2803,
      "ULT": 2804,
      "steps": 2805,
      "dt": 2806,
      "route": 2807,
      "Ġsim": 2808,
      "quire": 2809,
      "Ġresp": 2810,
      "istr": 2811,
      "Ġlink": 2812,
      "Loc": 2813,
      "')},": 2814,
      "django": 2815,
      "(\"\\": 2816,
      "Ġjob": 2817,
      "wise": 2818,
      "Des": 2819,
      "čĊĉ": 2820,
      "Ġcho": 2821,
      "Ġsorted": 2822,
      "ground": 2823,
      "ĠCopyright": 2824,
      "ĊĊĉ": 2825,
      "CA": 2826,
      "#!/": 2827,
      "sleep": 2828,
      "equal": 2829,
      "Ġdictionary": 2830,
      "andas": 2831,
      "culate": 2832,
      "Ġdatabase": 2833,
      "tran": 2834,
      "layout": 2835,
      "seed": 2836,
      "sm": 2837,
      "__':": 2838,
      "lied": 2839,
      "IO": 2840,
      "Ġsetup": 2841,
      "Ġnon": 2842,
      "ift": 2843,
      "ultiple": 2844,
      "Ġinit": 2845,
      "ĠIS": 2846,
      "Ġheight": 2847,
      "GET": 2848,
      "Context": 2849,
      "expected": 2850,
      "Ra": 2851,
      "Ġzip": 2852,
      "less": 2853,
      "dat": 2854,
      "42": 2855,
      "oken": 2856,
      "factor": 2857,
      "ged": 2858,
      "ones": 2859,
      "}\")": 2860,
      "aml": 2861,
      "tems": 2862,
      "rows": 2863,
      "Is": 2864,
      "gress": 2865,
      "Ġelement": 2866,
      "Window": 2867,
      "stract": 2868,
      "alpha": 2869,
      "region": 2870,
      "button": 2871,
      "pression": 2872,
      "ops": 2873,
      "ĠGener": 2874,
      "ared": 2875,
      "sql": 2876,
      "Ġservice": 2877,
      "Ġtraining": 2878,
      "DIR": 2879,
      "rest": 2880,
      "vider": 2881,
      "she": 2882,
      "redential": 2883,
      "Ġmatrix": 2884,
      "Status": 2885,
      "æķ": 2886,
      "Ġedge": 2887,
      "ision": 2888,
      "Button": 2889,
      "metric": 2890,
      "-------": 2891,
      "Ele": 2892,
      "Per": 2893,
      "cluster": 2894,
      "dest": 2895,
      "Ġfeature": 2896,
      "Ġ12": 2897,
      "Ġfont": 2898,
      ".\"": 2899,
      "directory": 2900,
      "Ġafter": 2901,
      "global": 2902,
      "Ġ15": 2903,
      "af": 2904,
      "Ġthread": 2905,
      "Ġyour": 2906,
      "pair": 2907,
      "Ġmark": 2908,
      "acc": 2909,
      "ĠAPI": 2910,
      "Inter": 2911,
      "Number": 2912,
      "Ġinformation": 2913,
      "ĠĊĠĠĠ": 2914,
      "cfg": 2915,
      "\"].": 2916,
      "setup": 2917,
      "'\\": 2918,
      "82": 2919,
      "press": 2920,
      "Ġremove": 2921,
      "ĊĊĊ": 2922,
      "report": 2923,
      "ported": 2924,
      "ÑĢ": 2925,
      "ĊĠĠĠĠĠĠĠĠĠĠĠĠĠĠĠĠĠĠĠĠĠĠĠĠĠĠ": 2926,
      "oo": 2927,
      "For": 2928,
      "ĠTODO": 2929,
      "within": 2930,
      "bution": 2931,
      "eff": 2932,
      "connection": 2933,
      "__,": 2934,
      "mplemented": 2935,
      "question": 2936,
      "Ġsplit": 2937,
      "ĠFor": 2938,
      "Ġsu": 2939,
      "prob": 2940,
      "ĠEn": 2941,
      "Of": 2942,
      "čĊčĊč": 2943,
      "ropo": 2944,
      "plotlib": 2945,
      "ATION": 2946,
      "Ġgenerate": 2947,
      "Ġspecific": 2948,
      "drop": 2949,
      "ĠWhy": 2950,
      "rapper": 2951,
      "asure": 2952,
      "ĠVar": 2953,
      "ensions": 2954,
      "Ġpoints": 2955,
      "ha": 2956,
      "POST": 2957,
      "ĊĠĠĠĠĠĠĠĠĠĠĠĠĠĠĠĠĠĠĠĠĠĠĠĠĠĠĠĠ": 2958,
      "Ġchild": 2959,
      "qa": 2960,
      "periment": 2961,
      "wd": 2962,
      "Module": 2963,
      "gg": 2964,
      "real": 2965,
      "ĠAlexa": 2966,
      "ML": 2967,
      "staticmethod": 2968,
      "ret": 2969,
      "Ġmean": 2970,
      "HT": 2971,
      "loader": 2972,
      "ĠStr": 2973,
      "rary": 2974,
      "zip": 2975,
      "Ġ'%": 2976,
      "tivation": 2977,
      "orld": 2978,
      "Ġold": 2979,
      "Ġarguments": 2980,
      "PRO": 2981,
      "hex": 2982,
      "Ġthan": 2983,
      "Ġinputs": 2984,
      "tity": 2985,
      "Ġerr": 2986,
      "learn": 2987,
      "ĠCheck": 2988,
      "ranch": 2989,
      "math": 2990,
      "Ġutils": 2991,
      "Pos": 2992,
      "DataFrame": 2993,
      "distance": 2994,
      "term": 2995,
      "QU": 2996,
      "Ġconst": 2997,
      "Ð½": 2998,
      "lack": 2999,
      "troller": 3000,
      "imal": 3001,
      "Ġbody": 3002,
      "Ġ'_": 3003,
      "Auth": 3004,
      "track": 3005,
      "insert": 3006,
      "Ġap": 3007,
      "54": 3008,
      "vm": 3009,
      "andard": 3010,
      "arr": 3011,
      "ĠAdd": 3012,
      "lim": 3013,
      "ĠANY": 3014,
      "ä»": 3015,
      "TE": 3016,
      "policy": 3017,
      "LI": 3018,
      "tex": 3019,
      "vec": 3020,
      "gy": 3021,
      "Ġstruct": 3022,
      "aded": 3023,
      "fg": 3024,
      "81": 3025,
      "By": 3026,
      "Or": 3027,
      "Ġcomple": 3028,
      "pg": 3029,
      "Ġfeatures": 3030,
      "ĠPath": 3031,
      "ĊĠĠĠĠĠĠĠĠĠĠĠĠĠĠĠĠĠĠĠĠĠĠĠĠĠĠĠĠĠĠĠĠĠĠĠĠĠĠĠ": 3032,
      "Ġfull": 3033,
      "Ġ\"%": 3034,
      "tach": 3035,
      "ORT": 3036,
      "tect": 3037,
      "Ġsco": 3038,
      "github": 3039,
      "git": 3040,
      "empty": 3041,
      "WORD": 3042,
      "aly": 3043,
      "speci": 3044,
      "future": 3045,
      "Ġsend": 3046,
      "Ġrepre": 3047,
      "product": 3048,
      "Ġinclude": 3049,
      ":%": 3050,
      "BU": 3051,
      "Ġnull": 3052,
      "light": 3053,
      "ven": 3054,
      "ily": 3055,
      "ness": 3056,
      "Ġimages": 3057,
      "Ġdocument": 3058,
      "ĠPython": 3059,
      "uff": 3060,
      "Column": 3061,
      "Ro": 3062,
      "Ġcache": 3063,
      "Ġ{}\".": 3064,
      "Ġpub": 3065,
      "ĠCh": 3066,
      "\":\"": 3067,
      "SON": 3068,
      "Ġeither": 3069,
      "pattern": 3070,
      "amma": 3071,
      "Ġreturns": 3072,
      "ĠWAR": 3073,
      "plug": 3074,
      "errors": 3075,
      "ilder": 3076,
      "loads": 3077,
      ")/": 3078,
      "ution": 3079,
      "Ġattr": 3080,
      "Command": 3081,
      "ropout": 3082,
      "ves": 3083,
      "fin": 3084,
      "Ġpart": 3085,
      "Ġwrit": 3086,
      "metrics": 3087,
      "Serial": 3088,
      "callback": 3089,
      "gb": 3090,
      "dius": 3091,
      "atter": 3092,
      "Ġdiffe": 3093,
      "pping": 3094,
      "draw": 3095,
      "]+": 3096,
      "*(": 3097,
      "web": 3098,
      "Ġcreated": 3099,
      "cpu": 3100,
      "Ġbetween": 3101,
      "Ġaccount": 3102,
      "CK": 3103,
      "ĠCol": 3104,
      "78": 3105,
      "ĠDefault": 3106,
      "Dis": 3107,
      "section": 3108,
      "ination": 3109,
      "commit": 3110,
      "groups": 3111,
      "Ġargparse": 3112,
      "Ġlanguage": 3113,
      "paths": 3114,
      "Ġtwo": 3115,
      "ilter": 3116,
      "Ġexception": 3117,
      "amera": 3118,
      "ived": 3119,
      "ĠLo": 3120,
      "imp": 3121,
      "reset": 3122,
      "ced": 3123,
      "Ġthere": 3124,
      "tn": 3125,
      "Ġcap": 3126,
      "ĠImage": 3127,
      "logging": 3128,
      "ries": 3129,
      "ship": 3130,
      "-%": 3131,
      "role": 3132,
      "ĠNot": 3133,
      "fra": 3134,
      "entic": 3135,
      "tk": 3136,
      "acter": 3137,
      "Ġcolumns": 3138,
      "Ġaddress": 3139,
      "xx": 3140,
      "timeout": 3141,
      "`.": 3142,
      "âĢ": 3143,
      "ĠAny": 3144,
      "Ġ\"__": 3145,
      "ending": 3146,
      "Ġpol": 3147,
      "76": 3148,
      "scope": 3149,
      "ĠTHE": 3150,
      "Ġwindow": 3151,
      "Ñģ": 3152,
      "Ġnan": 3153,
      "foo": 3154,
      "non": 3155,
      "Ġ\"--": 3156,
      "ĠDict": 3157,
      "Ġtree": 3158,
      "til": 3159,
      "ia": 3160,
      "tivity": 3161,
      "Count": 3162,
      "div": 3163,
      "Ġscore": 3164,
      "gex": 3165,
      "SS": 3166,
      "Ġkeys": 3167,
      "Ġsingle": 3168,
      "Ġscale": 3169,
      "Ġvector": 3170,
      "like": 3171,
      "vided": 3172,
      "thread": 3173,
      "Ġdist": 3174,
      "profile": 3175,
      "ĠKey": 3176,
      "7701": 3177,
      "cuda": 3178,
      "70": 3179,
      "Ġalpha": 3180,
      "----------------------------------------------------------------": 3181,
      "Ġfunc": 3182,
      "().__": 3183,
      "Ġstop": 3184,
      "Ġnow": 3185,
      "arm": 3186,
      "Ġfin": 3187,
      "cry": 3188,
      "clean": 3189,
      "98": 3190,
      "derr": 3191,
      "53": 3192,
      "curacy": 3193,
      "agent": 3194,
      "Point": 3195,
      "Pre": 3196,
      "gor": 3197,
      "94": 3198,
      "æľ": 3199,
      "Ġsql": 3200,
      "Ġoffset": 3201,
      ");": 3202,
      "database": 3203,
      "tic": 3204,
      "Ġ//": 3205,
      "Ġembed": 3206,
      "cr": 3207,
      "On": 3208,
      "pad": 3209,
      "lated": 3210,
      "card": 3211,
      "Ġlocation": 3212,
      "ocab": 3213,
      "application": 3214,
      "Ġmetadata": 3215,
      "Map": 3216,
      "custom": 3217,
      "æķ°": 3218,
      "è¯": 3219,
      "DG": 3220,
      "home": 3221,
      "success": 3222,
      "fc": 3223,
      "depth": 3224,
      "ĠBase": 3225,
      "created": 3226,
      "ability": 3227,
      "rank": 3228,
      "Ġcolle": 3229,
      "\"\\": 3230,
      "../": 3231,
      "Ġvar": 3232,
      "diction": 3233,
      "predict": 3234,
      "Ġ[[": 3235,
      "Table": 3236,
      "loy": 3237,
      "Ġconnection": 3238,
      "font": 3239,
      "Ġge": 3240,
      "This": 3241,
      "vals": 3242,
      "ifier": 3243,
      "Ġmeta": 3244,
      "buffer": 3245,
      "ĠYou": 3246,
      "âĸ": 3247,
      "TYPE": 3248,
      "stdout": 3249,
      "Ġmigrations": 3250,
      "Ġnoqa": 3251,
      ",-": 3252,
      "ĠConstraint": 3253,
      "async": 3254,
      "Ġdistance": 3255,
      "255": 3256,
      "++": 3257,
      "****************": 3258,
      "Ġ\"-": 3259,
      "Ġbound": 3260,
      "ower": 3261,
      "Option": 3262,
      "mm": 3263,
      "åĲ": 3264,
      "Ġcsv": 3265,
      "properties": 3266,
      "served": 3267,
      "olean": 3268,
      "Ġdelete": 3269,
      "RES": 3270,
      "Ġbefore": 3271,
      "83": 3272,
      "ĠZ": 3273,
      "astype": 3274,
      "ĠComp": 3275,
      "tuple": 3276,
      "Gener": 3277,
      "plan": 3278,
      "Ġsuccess": 3279,
      "dm": 3280,
      "transp": 3281,
      "zero": 3282,
      "Layout": 3283,
      "bers": 3284,
      "vious": 3285,
      "__)": 3286,
      "fail": 3287,
      "oci": 3288,
      "ĊĠĠĠĠĠĠĠĠĠĠĠĠĠĠĠĠĠĠĠĠĠĠĠĠĠĠĠĠĠ": 3289,
      "ITY": 3290,
      "Label": 3291,
      "1000": 3292,
      "sqrt": 3293,
      "leg": 3294,
      "win": 3295,
      "Ġalready": 3296,
      "âĶ": 3297,
      "Mo": 3298,
      "dumps": 3299,
      "cols": 3300,
      "Ġsee": 3301,
      "hether": 3302,
      "long": 3303,
      "olve": 3304,
      "We": 3305,
      "sched": 3306,
      "hidden": 3307,
      "gorith": 3308,
      "multi": 3309,
      "category": 3310,
      "()))": 3311,
      "ategor": 3312,
      "users": 3313,
      "Ġcomponent": 3314,
      "Ġmodi": 3315,
      "Ġvi": 3316,
      "Ġempty": 3317,
      "tered": 3318,
      "gnore": 3319,
      "'{": 3320,
      "startswith": 3321,
      "_{": 3322,
      "loop": 3323,
      "summary": 3324,
      "tical": 3325,
      "quires": 3326,
      "br": 3327,
      "lr": 3328,
      "VE": 3329,
      "################################################################": 3330,
      "__()": 3331,
      "FO": 3332,
      "obs": 3333,
      "ometry": 3334,
      "ĠWARRAN": 3335,
      "Ġmatplotlib": 3336,
      "Ġscri": 3337,
      "Ġsoftware": 3338,
      "Ġsm": 3339,
      "volume": 3340,
      "DS": 3341,
      "Ġemail": 3342,
      "lap": 3343,
      "handle": 3344,
      "driver": 3345,
      "tab": 3346,
      "ãĢ": 3347,
      "Ġcustom": 3348,
      "Ġits": 3349,
      "GE": 3350,
      "ĠAt": 3351,
      "Ġepoch": 3352,
      "desc": 3353,
      "ĠRun": 3354,
      "ynam": 3355,
      "FAULT": 3356,
      "fill": 3357,
      "price": 3358,
      "Ġgame": 3359,
      "ZE": 3360,
      "extend": 3361,
      "43": 3362,
      "Ġpadding": 3363,
      "Integer": 3364,
      "style": 3365,
      "untry": 3366,
      "hand": 3367,
      "ERR": 3368,
      "cel": 3369,
      "CC": 3370,
      "Service": 3371,
      "blem": 3372,
      "Ġtimeout": 3373,
      "requ": 3374,
      "mount": 3375,
      "NO": 3376,
      "training": 3377,
      "Ġregion": 3378,
      "sd": 3379,
      "Ġscript": 3380,
      "Ġsecond": 3381,
      "kernel": 3382,
      "xture": 3383,
      "itions": 3384,
      "WAR": 3385,
      "PL": 3386,
      "outputs": 3387,
      "ditional": 3388,
      "defin": 3389,
      "aa": 3390,
      "alle": 3391,
      "Ġpick": 3392,
      "threshold": 3393,
      "Ġattribute": 3394,
      "(**": 3395,
      "Max": 3396,
      "cd": 3397,
      "58": 3398,
      "tact": 3399,
      "site": 3400,
      "Ġwithout": 3401,
      "Ġans": 3402,
      "Ġ255": 3403,
      "ĊĠĠĠĠĠĠĠĠĠĠĠĠĠĠĠĠĠĠĠĠĠĠĠĠĠĠĠĠĠĠĠĠĠ": 3404,
      "Ġstream": 3405,
      "Ġmon": 3406,
      "Ġexit": 3407,
      "()[": 3408,
      "Ġaccess": 3409,
      "}.": 3410,
      "PASS": 3411,
      "dered": 3412,
      "Color": 3413,
      "Ġdisplay": 3414,
      "ĠSer": 3415,
      "uler": 3416,
      "Ed": 3417,
      "ĊĠĠĠĠĠĠĠĠĠĠĠĠĠĠĠĠĠĠĠĠĠĠĠĠĠĠĠĠĠĠ": 3418,
      "Ġ1000": 3419,
      "xel": 3420,
      "Ġfollowing": 3421,
      "###": 3422,
      "Ġdir": 3423,
      "åħ": 3424,
      "counter": 3425,
      "74": 3426,
      "distri": 3427,
      "ĠĠĠĠĠĠĠĠĠĠĠ": 3428,
      "ube": 3429,
      "sec": 3430,
      "dirs": 3431,
      "Ġsa": 3432,
      "Ġ\"<": 3433,
      "Ġloc": 3434,
      "player": 3435,
      "alys": 3436,
      "zone": 3437,
      "Ġcorrect": 3438,
      "Ġcell": 3439,
      "ote": 3440,
      "Ġcli": 3441,
      "AY": 3442,
      "flag": 3443,
      "Ġ((": 3444,
      "Ġavailable": 3445,
      "ons": 3446,
      "ndarray": 3447,
      "Ġ$": 3448,
      "Core": 3449,
      "olute": 3450,
      "apping": 3451,
      "best": 3452,
      "256": 3453,
      "pers": 3454,
      "DATA": 3455,
      "alysis": 3456,
      "ends": 3457,
      "upper": 3458,
      "Ġbest": 3459,
      "fici": 3460,
      "Ġprefix": 3461,
      "cloud": 3462,
      "ĠDE": 3463,
      "vironment": 3464,
      "Ġnodes": 3465,
      "+'": 3466,
      "seg": 3467,
      "Ġunique": 3468,
      "Output": 3469,
      "8618": 3470,
      "Block": 3471,
      "cret": 3472,
      "scores": 3473,
      "All": 3474,
      "ABLE": 3475,
      "raises": 3476,
      "ighb": 3477,
      "ams": 3478,
      "RL": 3479,
      "SER": 3480,
      "times": 3481,
      "HER": 3482,
      "chain": 3483,
      "az": 3484,
      "skip": 3485,
      "ENSE": 3486,
      "_,": 3487,
      "classmethod": 3488,
      "tition": 3489,
      "Ġfinal": 3490,
      "Ġweights": 3491,
      "Be": 3492,
      "(['": 3493,
      "dirname": 3494,
      "Ġgen": 3495,
      "ert": 3496,
      "Ġpandas": 3497,
      "sequence": 3498,
      "Ġprovided": 3499,
      "extra": 3500,
      "Ġman": 3501,
      "thing": 3502,
      "apshot": 3503,
      "FL": 3504,
      "validate": 3505,
      "Temp": 3506,
      "Logger": 3507,
      "Ġdec": 3508,
      "Ġsubprocess": 3509,
      "={'": 3510,
      "Ġpred": 3511,
      "ĠFile": 3512,
      "Ġcompute": 3513,
      "__\":": 3514,
      "Instance": 3515,
      "termin": 3516,
      "Ġunittest": 3517,
      "ince": 3518,
      "repr": 3519,
      "cost": 3520,
      "Ġind": 3521,
      "Ġitems": 3522,
      "Ġobjects": 3523,
      "END": 3524,
      "nan": 3525,
      "Ġpad": 3526,
      "Manager": 3527,
      "VAL": 3528,
      "gre": 3529,
      "vari": 3530,
      "Ġcluster": 3531,
      "cript": 3532,
      "92": 3533,
      "mk": 3534,
      "ĠCom": 3535,
      "alance": 3536,
      ")*": 3537,
      "Do": 3538,
      "inates": 3539,
      "ICENSE": 3540,
      "vars": 3541,
      "tokens": 3542,
      "MS": 3543,
      "attributes": 3544,
      "Ġextra": 3545,
      "UB": 3546,
      "contrib": 3547,
      "CR": 3548,
      "End": 3549,
      "Fore": 3550,
      "Full": 3551,
      "}'": 3552,
      "ĠName": 3553,
      "this": 3554,
      "Ġbytes": 3555,
      "('-": 3556,
      "93": 3557,
      "Function": 3558,
      "ĠCal": 3559,
      "Ġmethods": 3560,
      "encies": 3561,
      "73": 3562,
      "Ġconfiguration": 3563,
      "00000000": 3564,
      "Fe": 3565,
      "Ġday": 3566,
      "uble": 3567,
      "Ġkeep": 3568,
      "rl": 3569,
      "Element": 3570,
      "å¤": 3571,
      "cm": 3572,
      "ĠWIT": 3573,
      "Process": 3574,
      "Ġconvert": 3575,
      "Conv": 3576,
      "pb": 3577,
      "IND": 3578,
      "cb": 3579,
      "Ġ-------": 3580,
      "Array": 3581,
      "pose": 3582,
      "}\\": 3583,
      "null": 3584,
      "]],": 3585,
      "({'": 3586,
      "/{": 3587,
      "izers": 3588,
      "ĠAp": 3589,
      "fetch": 3590,
      "':'": 3591,
      "rough": 3592,
      "ish": 3593,
      "ices": 3594,
      "Ġconnect": 3595,
      "Ġ\"\",": 3596,
      "Ġsystem": 3597,
      "Ġrule": 3598,
      "states": 3599,
      "PS": 3600,
      "ould": 3601,
      "ĠNOT": 3602,
      "ats": 3603,
      "Valid": 3604,
      "okup": 3605,
      "]])": 3606,
      "unique": 3607,
      "issing": 3608,
      "Ġsequence": 3609,
      "lugin": 3610,
      "interval": 3611,
      "ixel": 3612,
      "Ġte": 3613,
      "itude": 3614,
      "ines": 3615,
      "vate": 3616,
      "Ġsent": 3617,
      "ili": 3618,
      "prop": 3619,
      "PASSWORD": 3620,
      "dia": 3621,
      "From": 3622,
      "çĶ": 3623,
      "ĉĉĉĉ": 3624,
      "generate": 3625,
      "uint": 3626,
      "Tra": 3627,
      "docs": 3628,
      "Ġoriginal": 3629,
      "tegr": 3630,
      "}')": 3631,
      "Content": 3632,
      "ĠSo": 3633,
      "Ġusername": 3634,
      "ral": 3635,
      "Ġtrack": 3636,
      "Ġhasattr": 3637,
      "ender": 3638,
      "Ġobtain": 3639,
      "Ġhandle": 3640,
      "uter": 3641,
      "curity": 3642,
      "uild": 3643,
      "attribute": 3644,
      "Ġsig": 3645,
      "ROM": 3646,
      "ffix": 3647,
      "except": 3648,
      "ssible": 3649,
      "Raises": 3650,
      "Ġbeen": 3651,
      "member": 3652,
      "redentials": 3653,
      "entries": 3654,
      "atom": 3655,
      "(\"/": 3656,
      "91": 3657,
      "velo": 3658,
      "tack": 3659,
      "Ġloop": 3660,
      "ĠĠĠĠĠĠĠĠĠ": 3661,
      "storage": 3662,
      "compile": 3663,
      "ratio": 3664,
      "avg": 3665,
      "Ġrece": 3666,
      "Ġprob": 3667,
      "TIES": 3668,
      "bind": 3669,
      "apply": 3670,
      "ets": 3671,
      "ignment": 3672,
      "Ġ50": 3673,
      "Ġproduct": 3674,
      "bucket": 3675,
      "events": 3676,
      "TER": 3677,
      "Ġauthor": 3678,
      "cos": 3679,
      "uation": 3680,
      "Ġencoding": 3681,
      "/'": 3682,
      "Action": 3683,
      "help": 3684,
      "izes": 3685,
      "engine": 3686,
      "][\"": 3687,
      "arange": 3688,
      "GR": 3689,
      "final": 3690,
      "Reals": 3691,
      "Ġip": 3692,
      "Ġhash": 3693,
      "ĊĊĠĠĠĠĠĠĠĠĠĠĠĠĠĠĠĠĠĠĠ": 3694,
      "ters": 3695,
      "posit": 3696,
      "mag": 3697,
      "ws": 3698,
      "ather": 3699,
      "ategy": 3700,
      "trace": 3701,
      "Ġvariables": 3702,
      "Argument": 3703,
      "Gui": 3704,
      "ixed": 3705,
      "Ġactual": 3706,
      "ength": 3707,
      "FILE": 3708,
      "where": 3709,
      "relu": 3710,
      "cessed": 3711,
      "ensity": 3712,
      "ĠConfig": 3713,
      "Ġtypes": 3714,
      "Start": 3715,
      "Ġcontaining": 3716,
      "Ġdisc": 3717,
      "liance": 3718,
      "STR": 3719,
      "Ġmer": 3720,
      "72": 3721,
      "verbose": 3722,
      "Ġlike": 3723,
      "Ġseq": 3724,
      "Ġignore": 3725,
      "ĠVersion": 3726,
      "processing": 3727,
      "master": 3728,
      "Ġconf": 3729,
      "dient": 3730,
      "used": 3731,
      "Ġnoti": 3732,
      "COL": 3733,
      "Ġerrors": 3734,
      "roll": 3735,
      "amo": 3736,
      "Ġ<<": 3737,
      "=%": 3738,
      "commands": 3739,
      "ification": 3740,
      "(\"%": 3741,
      "joint": 3742,
      "Tag": 3743,
      "Ġ_,": 3744,
      "IGHT": 3745,
      "Ġreport": 3746,
      "LOG": 3747,
      "Token": 3748,
      "Ġskip": 3749,
      "aved": 3750,
      "Ġest": 3751,
      "71": 3752,
      "parameter": 3753,
      "dictions": 3754,
      "addr": 3755,
      "tention": 3756,
      "Filter": 3757,
      "_(": 3758,
      "Update": 3759,
      "62": 3760,
      "anel": 3761,
      "conn": 3762,
      "ALL": 3763,
      "Ġtrue": 3764,
      "cursor": 3765,
      "dims": 3766,
      "41": 3767,
      "è¿": 3768,
      "OS": 3769,
      "container": 3770,
      "68": 3771,
      "filters": 3772,
      "Ġpair": 3773,
      "adj": 3774,
      "assertRaises": 3775,
      "As": 3776,
      "Ġ30": 3777,
      "prec": 3778,
      "Ġforward": 3779,
      "memory": 3780,
      "Rec": 3781,
      "Ġmulti": 3782,
      "Task": 3783,
      "Ġmove": 3784,
      "warning": 3785,
      "Ġcfg": 3786,
      "ĠAll": 3787,
      "iddle": 3788,
      "ðŁı": 3789,
      "æĸ": 3790,
      "Ġì": 3791,
      "ĠReg": 3792,
      "Pri": 3793,
      "ured": 3794,
      "payload": 3795,
      "Invalid": 3796,
      "cip": 3797,
      "flat": 3798,
      "./": 3799,
      "variables": 3800,
      "aries": 3801,
      "olver": 3802,
      "forms": 3803,
      "etri": 3804,
      "Ġpe": 3805,
      "Ġoutputs": 3806,
      "ĠWARRANTIES": 3807,
      "ii": 3808,
      "}\".": 3809,
      "lis": 3810,
      "69": 3811,
      ".*": 3812,
      "PR": 3813,
      "Ġplayer": 3814,
      "setter": 3815,
      "Serializer": 3816,
      "Ġexists": 3817,
      "Ġnt": 3818,
      "respon": 3819,
      "Ġtests": 3820,
      "Ġreturned": 3821,
      "Ġfit": 3822,
      "Resource": 3823,
      "\"}": 3824,
      "INE": 3825,
      "Ġlong": 3826,
      "assed": 3827,
      "Ġweb": 3828,
      "elect": 3829,
      "License": 3830,
      "linear": 3831,
      "DF": 3832,
      "freq": 3833,
      "Ġqueue": 3834,
      "pipeline": 3835,
      "gorithm": 3836,
      "xff": 3837,
      "Ġmetric": 3838,
      "ĠLog": 3839,
      "Ġstride": 3840,
      "star": 3841,
      "ĠUp": 3842,
      "PUT": 3843,
      "views": 3844,
      "mac": 3845,
      "ummy": 3846,
      "Implemented": 3847,
      "NE": 3848,
      "ĠĠĠĠĠĠĠĠĠĠ": 3849,
      "63": 3850,
      "short": 3851,
      "Ġjust": 3852,
      "dr": 3853,
      "Ġfolder": 3854,
      "erson": 3855,
      "ĊĠĠĠĠĠĠĠĠĠĠĠĠĊĠĠĠĠĠĠĠĠĠĠĠ": 3856,
      "Ġthem": 3857,
      "concat": 3858,
      "Found": 3859,
      "Ġfail": 3860,
      "urface": 3861,
      "Ġsn": 3862,
      "arnings": 3863,
      "/%": 3864,
      "Level": 3865,
      "Ġsort": 3866,
      "Ġspe": 3867,
      "ĠModel": 3868,
      "rb": 3869,
      "Ext": 3870,
      "oriz": 3871,
      "Dataset": 3872,
      ":\\": 3873,
      "Version": 3874,
      "eded": 3875,
      "ĠIt": 3876,
      "urls": 3877,
      "amount": 3878,
      "allow": 3879,
      "units": 3880,
      "ASE": 3881,
      "Ġconn": 3882,
      "Ġgetattr": 3883,
      "seconds": 3884,
      "soft": 3885,
      "Ġsw": 3886,
      ")).": 3887,
      "51": 3888,
      "atches": 3889,
      "ving": 3890,
      "Hel": 3891,
      "ective": 3892,
      "struction": 3893,
      "')),": 3894,
      "Ġrows": 3895,
      "Ġpayload": 3896,
      "501": 3897,
      "colors": 3898,
      "ITION": 3899,
      "Ġextract": 3900,
      "CONF": 3901,
      "Ġdraw": 3902,
      "ĠApp": 3903,
      "redu": 3904,
      "Oper": 3905,
      "TEST": 3906,
      "Ġproperty": 3907,
      "Ġcallback": 3908,
      "Ġdomain": 3909,
      "collection": 3910,
      "ACK": 3911,
      "ire": 3912,
      "Ġ{}'.": 3913,
      "didate": 3914,
      "Server": 3915,
      "ERROR": 3916,
      "]*": 3917,
      "\"][": 3918,
      "Ġalso": 3919,
      "Ġconv": 3920,
      "ado": 3921,
      "called": 3922,
      "widget": 3923,
      "Ġ%(": 3924,
      "Ġtags": 3925,
      "lation": 3926,
      "Ġclean": 3927,
      "ĠNum": 3928,
      "Ġ\")": 3929,
      "IB": 3930,
      "Def": 3931,
      "ĠLO": 3932,
      "Ġmod": 3933,
      "document": 3934,
      "Ġreq": 3935,
      "quee": 3936,
      "Ġreference": 3937,
      "noti": 3938,
      "google": 3939,
      ":-": 3940,
      "history": 3941,
      "Ġpermissions": 3942,
      ".\",": 3943,
      "Ġbased": 3944,
      "ocument": 3945,
      "mapping": 3946,
      "ĊĠĠĠĠĠĠĠĠĊĠĠĠ": 3947,
      "ead": 3948,
      "å®": 3949,
      "Ġschema": 3950,
      "ĠAc": 3951,
      "Ġwait": 3952,
      "ale": 3953,
      "selection": 3954,
      "binary": 3955,
      "ditions": 3956,
      ":.": 3957,
      "Ġus": 3958,
      "Ġ11": 3959,
      "known": 3960,
      "Ġ'{": 3961,
      "span": 3962,
      "Ġpredict": 3963,
      "ites": 3964,
      "Ġhist": 3965,
      "Ġhand": 3966,
      "61": 3967,
      "fp": 3968,
      "MM": 3969,
      "ga": 3970,
      "čĊĠĠĠĠĠĠĠĠĠĠĠĠĠĠĠĠĠĠĠĠĠĠĠ": 3971,
      "HTTP": 3972,
      "Ġdebug": 3973,
      "ario": 3974,
      "CP": 3975,
      "writer": 3976,
      "uate": 3977,
      "flags": 3978,
      "Ġauto": 3979,
      "HOUT": 3980,
      "licenses": 3981,
      "vas": 3982,
      "comment": 3983,
      "Dir": 3984,
      "Ġrep": 3985,
      "her": 3986,
      "area": 3987,
      "(\"--": 3988,
      "servation": 3989,
      "ensed": 3990,
      "tool": 3991,
      "Ġsamples": 3992,
      "+\"": 3993,
      "repo": 3994,
      "ĠLe": 3995,
      "Ġfactor": 3996,
      "LECT": 3997,
      "boxes": 3998,
      "Ġwant": 3999,
      "Policy": 4000,
      "čĊčĊ": 4001,
      "correct": 4002,
      "Mode": 4003,
      "edit": 4004,
      "Ġdifferent": 4005,
      "ier": 4006,
      "sl": 4007,
      "Ġstack": 4008,
      "tocol": 4009,
      "æĪ": 4010,
      "Ġcontains": 4011,
      "none": 4012,
      "Ġcursor": 4013,
      "tax": 4014,
      "rec": 4015,
      "Ġreverse": 4016,
      "plat": 4017,
      "Mock": 4018,
      "ĊĠĠĠĠĠĠĠĠĠĠĠĠĠĠĠĠĠĠĠĠĠĠĠĠĠĠĠĠĠĠĠĠĠĠ": 4019,
      "ida": 4020,
      ":,": 4021,
      "PAR": 4022,
      "ttp": 4023,
      "SIZE": 4024,
      "Ġow": 4025,
      "ransp": 4026,
      "è®": 4027,
      "compute": 4028,
      "control": 4029,
      "Ġinstall": 4030,
      "ĠPo": 4031,
      "factory": 4032,
      "ynamic": 4033,
      "details": 4034,
      "come": 4035,
      "FOR": 4036,
      "duration": 4037,
      "render": 4038,
      "modules": 4039,
      "pdf": 4040,
      "Cur": 4041,
      "reference": 4042,
      "Ġpygame": 4043,
      "âķ": 4044,
      "rece": 4045,
      "ĠOr": 4046,
      "ĠĊĠĠĠĠĠĠĠĠĠĠĠ": 4047,
      "coords": 4048,
      "ĠSh": 4049,
      "single": 4050,
      ")])": 4051,
      "choice": 4052,
      "clu": 4053,
      "bits": 4054,
      "Ġdt": 4055,
      "ient": 4056,
      "include": 4057,
      "clear": 4058,
      "Ġfailed": 4059,
      "Session": 4060,
      "Ġaut": 4061,
      "Ġhtml": 4062,
      "series": 4063,
      "Widgets": 4064,
      "alk": 4065,
      "AGS": 4066,
      "EXT": 4067,
      "äº": 4068,
      "Ġ\"_": 4069,
      "Ġrot": 4070,
      "messages": 4071,
      "Ġhigh": 4072,
      "speed": 4073,
      "enu": 4074,
      "Ġreplace": 4075,
      "uniprot": 4076,
      "ĠTh": 4077,
      "mesh": 4078,
      "čĊĠĠĠĠ": 4079,
      "IR": 4080,
      "`,": 4081,
      "Ġfunctions": 4082,
      "neg": 4083,
      "Ġrunning": 4084,
      "Ġdisable": 4085,
      "Call": 4086,
      "Cal": 4087,
      "requency": 4088,
      "Ġ[-": 4089,
      "CS": 4090,
      "Ġ32": 4091,
      "convert": 4092,
      "ĠString": 4093,
      "ignKey": 4094,
      "queeze": 4095,
      "Ġflag": 4096,
      "ampling": 4097,
      ">'": 4098,
      "CTION": 4099,
      "GL": 4100,
      "mplement": 4101,
      "logy": 4102,
      "ĠURL": 4103,
      "bias": 4104,
      "cut": 4105,
      "ench": 4106,
      "001": 4107,
      "Ġoperation": 4108,
      "DR": 4109,
      "vol": 4110,
      "elif": 4111,
      "....": 4112,
      "!!": 4113,
      "Ġpattern": 4114,
      "auss": 4115,
      "modi": 4116,
      "ished": 4117,
      "pository": 4118,
      "CRE": 4119,
      "ĠWITHOUT": 4120,
      "ector": 4121,
      "Ġnamespace": 4122,
      "Ġ-=": 4123,
      "Ð»": 4124,
      "ĠApache": 4125,
      "GB": 4126,
      "tasks": 4127,
      "reed": 4128,
      "erature": 4129,
      "\"},": 4130,
      ",\"": 4131,
      "endencies": 4132,
      "tc": 4133,
      "atic": 4134,
      "Ġvalidate": 4135,
      "power": 4136,
      "OUT": 4137,
      "ression": 4138,
      "istic": 4139,
      "colle": 4140,
      "ĠFROM": 4141,
      "Min": 4142,
      "ä½": 4143,
      "Ġshe": 4144,
      "alth": 4145,
      "Ġindices": 4146,
      "optim": 4147,
      "Ġsupport": 4148,
      "generator": 4149,
      "Graph": 4150,
      "exc": 4151,
      "ç»": 4152,
      "unittest": 4153,
      "Property": 4154,
      "Ġreal": 4155,
      "inf": 4156,
      "Ġrate": 4157,
      "AGE": 4158,
      "Ġstyle": 4159,
      "quare": 4160,
      "Ġdone": 4161,
      "Ġspace": 4162,
      "chunk": 4163,
      "ĠNotImplemented": 4164,
      "Query": 4165,
      ")}": 4166,
      "cription": 4167,
      "car": 4168,
      "RecName": 4169,
      "Ġdon": 4170,
      "Ġntuniprot": 4171,
      "åŃ": 4172,
      "MODE": 4173,
      "force": 4174,
      "Ġdat": 4175,
      "utor": 4176,
      "Ġ[(": 4177,
      "EM": 4178,
      "UD": 4179,
      "subplot": 4180,
      ")',": 4181,
      "DEFAULT": 4182,
      "blue": 4183,
      "most": 4184,
      ".',": 4185,
      "tile": 4186,
      "Ġsklearn": 4187,
      "Ġ:,": 4188,
      "Ġrest": 4189,
      "jobs": 4190,
      "Ġapplic": 4191,
      "bb": 4192,
      "screen": 4193,
      "high": 4194,
      "ĊĠĠĠĠĠĠĠĠĠĠĠĠĠĠĠĠĠĠĠĠĠĠĠĠĠĠĠĠĠĠĠĠĠĠĠĠ": 4195,
      "WS": 4196,
      "noun": 4197,
      "isode": 4198,
      "Load": 4199,
      "Ġpatch": 4200,
      "interface": 4201,
      "sole": 4202,
      "cause": 4203,
      "()),": 4204,
      "128": 4205,
      "mu": 4206,
      "plugin": 4207,
      "PER": 4208,
      "USER": 4209,
      "Read": 4210,
      "second": 4211,
      "\"\",": 4212,
      "Ġdiff": 4213,
      "Ġwriting": 4214,
      "rtype": 4215,
      "\"]:": 4216,
      "uffle": 4217,
      "Ġround": 4218,
      "Ġannot": 4219,
      "Address": 4220,
      "ĠTo": 4221,
      "month": 4222,
      "Ġtimestamp": 4223,
      "SION": 4224,
      "Op": 4225,
      "icro": 4226,
      "Ġlat": 4227,
      "Ġ})": 4228,
      "Ġdefined": 4229,
      "ĠKIND": 4230,
      "Ġdelta": 4231,
      "des": 4232,
      "pid": 4233,
      "\");": 4234,
      "Ġnorm": 4235,
      "ĠEX": 4236,
      "vs": 4237,
      "igration": 4238,
      "download": 4239,
      "Ġstore": 4240,
      "Ġcollections": 4241,
      "SQL": 4242,
      "edges": 4243,
      "after": 4244,
      "Ġhandler": 4245,
      "With": 4246,
      "lex": 4247,
      "tract": 4248,
      "bi": 4249,
      "Ġpop": 4250,
      "uplic": 4251,
      "stderr": 4252,
      "Ġprogram": 4253,
      "%(": 4254,
      "beta": 4255,
      "Int": 4256,
      "ĊĠĠĠĠĠĠĠĠĠĠĠĠĠĠĠĠĠĠĠĠĠĠĠĠĠĠĠĠĠĠĠĠĠĠĠĠĠ": 4257,
      "Ġtr": 4258,
      "ĠTime": 4259,
      "Ġevery": 4260,
      "comm": 4261,
      "OK": 4262,
      "components": 4263,
      "BUG": 4264,
      "}'.": 4265,
      "tein": 4266,
      "Ġvari": 4267,
      "ority": 4268,
      "Ġoptimizer": 4269,
      "counts": 4270,
      "tices": 4271,
      "validation": 4272,
      "etail": 4273,
      "Ġpk": 4274,
      "ural": 4275,
      "relation": 4276,
      "rences": 4277,
      "Ġblank": 4278,
      "ĠQu": 4279,
      "tt": 4280,
      "feed": 4281,
      "ĠInput": 4282,
      "Ġattributes": 4283,
      "eq": 4284,
      "]).": 4285,
      "backend": 4286,
      "Ġ60": 4287,
      "reward": 4288,
      "Ġdetails": 4289,
      "Ġsci": 4290,
      "ĠTypeError": 4291,
      "fname": 4292,
      "children": 4293,
      "Ġwhether": 4294,
      "Page": 4295,
      "So": 4296,
      "\">": 4297,
      "pick": 4298,
      "Ġhidden": 4299,
      "days": 4300,
      "=[\"": 4301,
      "[:-": 4302,
      "Ġmessages": 4303,
      "Ġcalled": 4304,
      "squeeze": 4305,
      "stage": 4306,
      "cio": 4307,
      "hook": 4308,
      "Args": 4309,
      "blank": 4310,
      "ssue": 4311,
      "gger": 4312,
      "Ġ64": 4313,
      "Ġbl": 4314,
      "ail": 4315,
      "__.": 4316,
      "ĊĠĠĠĠĠĠĠĠĠĠĠĠĠĠĠĠĠĠĠĠĠĠĠĠĠĠĠĠĠĠĠĠĠĠĠĠĠĠĠĠĠĠĠ": 4317,
      "install": 4318,
      "nb": 4319,
      "ĠCl": 4320,
      "mut": 4321,
      "greg": 4322,
      "Scal": 4323,
      "Ġpickle": 4324,
      "Factory": 4325,
      ":\",": 4326,
      "Ġentity": 4327,
      "available": 4328,
      "icensed": 4329,
      "px": 4330,
      "spect": 4331,
      "->": 4332,
      "ĠHTTP": 4333,
      "hic": 4334,
      "SET": 4335,
      "istry": 4336,
      "public": 4337,
      "Ġcenter": 4338,
      "Ġchunk": 4339,
      "ĠAND": 4340,
      "Ġmetrics": 4341,
      "alt": 4342,
      "Ġcommon": 4343,
      "Ġpixel": 4344,
      "ee": 4345,
      "language": 4346,
      "Ġhow": 4347,
      "Ġå": 4348,
      "ume": 4349,
      "exceptions": 4350,
      "hs": 4351,
      "socket": 4352,
      "Ġimplied": 4353,
      "ForeignKey": 4354,
      "Ġsen": 4355,
      "pd": 4356,
      "Ġsocket": 4357,
      "elete": 4358,
      "attrs": 4359,
      "iod": 4360,
      "ĠNotImplementedError": 4361,
      "ways": 4362,
      "Ġseconds": 4363,
      "Ġselected": 4364,
      "SO": 4365,
      "ases": 4366,
      "tection": 4367,
      "Options": 4368,
      "fact": 4369,
      "expand": 4370,
      "fr": 4371,
      "LICENSE": 4372,
      "Ġtensorflow": 4373,
      "Ã©": 4374,
      "menu": 4375,
      "Ġmp": 4376,
      "è¡": 4377,
      "invalid": 4378,
      "ĊĊĊĊ": 4379,
      "Ġassign": 4380,
      "Ġ14": 4381,
      "AME": 4382,
      "raise": 4383,
      "Default": 4384,
      "getLogger": 4385,
      "subject": 4386,
      "AND": 4387,
      "PORT": 4388,
      "apache": 4389,
      "getter": 4390,
      "Ġpassed": 4391,
      "Ġexc": 4392,
      "Ġredirect": 4393,
      "Ġ')": 4394,
      "owner": 4395,
      "SD": 4396,
      "Ġcommands": 4397,
      "Ġoptim": 4398,
      "dings": 4399,
      "td": 4400,
      "lst": 4401,
      "oto": 4402,
      "Ġflask": 4403,
      "Ġbecause": 4404,
      "([[": 4405,
      "Method": 4406,
      "cluded": 4407,
      "miss": 4408,
      "secret": 4409,
      "frames": 4410,
      "actor": 4411,
      "Ġhy": 4412,
      "Ġclasses": 4413,
      "air": 4414,
      "period": 4415,
      "Ġclose": 4416,
      "acity": 4417,
      "Ġprevious": 4418,
      "yg": 4419,
      "ĠSoftware": 4420,
      "ored": 4421,
      "sentation": 4422,
      "randint": 4423,
      "fake": 4424,
      "############": 4425,
      "hour": 4426,
      "inate": 4427,
      "namespace": 4428,
      "Ġvolume": 4429,
      "Ġgl": 4430,
      "ĠUnion": 4431,
      "syn": 4432,
      "Ge": 4433,
      "Ġthrough": 4434,
      "Ġ###": 4435,
      "Ġbinary": 4436,
      "Tree": 4437,
      "Ġve": 4438,
      "Ġbin": 4439,
      "latform": 4440,
      "yaml": 4441,
      "Ġsubject": 4442,
      "ĠField": 4443,
      ">\"": 4444,
      "Ġgenerated": 4445,
      "zy": 4446,
      "Ġproperties": 4447,
      "âĸĪ": 4448,
      "gpu": 4449,
      "UTH": 4450,
      "testing": 4451,
      "tep": 4452,
      "Ġæ": 4453,
      "pixel": 4454,
      "Layer": 4455,
      "Ġagent": 4456,
      "âĶĢ": 4457,
      "=_": 4458,
      "Ġ\"{": 4459,
      "Ġgover": 4460,
      "NN": 4461,
      "_.": 4462,
      "hes": 4463,
      "DITION": 4464,
      "Ġcorrespon": 4465,
      "ĠLicensed": 4466,
      "BO": 4467,
      "extract": 4468,
      "XXXXXXXX": 4469,
      "AA": 4470,
      "PC": 4471,
      "Ġmultiple": 4472,
      "Ġtick": 4473,
      "Mat": 4474,
      "eve": 4475,
      "allel": 4476,
      "Ġ'',": 4477,
      "umb": 4478,
      "Ġsched": 4479,
      "Ġdownload": 4480,
      "Ġamount": 4481,
      "forward": 4482,
      "2019": 4483,
      "sync": 4484,
      "Ġfill": 4485,
      "figure": 4486,
      "Source": 4487,
      "Ġcre": 4488,
      "ocker": 4489,
      "sin": 4490,
      "alf": 4491,
      "Ġboard": 4492,
      "ANT": 4493,
      "entro": 4494,
      "Ġcategory": 4495,
      "hat": 4496,
      "enabled": 4497,
      "Ġusers": 4498,
      "Ġapply": 4499,
      "signal": 4500,
      "fixture": 4501,
      "Parameter": 4502,
      "ences": 4503,
      "Ġthese": 4504,
      "lint": 4505,
      "ixin": 4506,
      "Ġour": 4507,
      "erial": 4508,
      "Ġprop": 4509,
      "Ġadded": 4510,
      "gan": 4511,
      "basic": 4512,
      "Ġrole": 4513,
      ">\",": 4514,
      "release": 4515,
      "bove": 4516,
      "Ġdimension": 4517,
      "ited": 4518,
      "Ġtrace": 4519,
      "Ġsure": 4520,
      "rowser": 4521,
      "ĠOut": 4522,
      "Rule": 4523,
      "Ġapplicable": 4524,
      "export": 4525,
      "original": 4526,
      "dele": 4527,
      "Ġwords": 4528,
      "Ġthey": 4529,
      ")+": 4530,
      "apter": 4531,
      "fid": 4532,
      "identifier": 4533,
      "rays": 4534,
      "direction": 4535,
      "Ðº": 4536,
      "Ġdesc": 4537,
      "theta": 4538,
      "Ġplace": 4539,
      "ĠSub": 4540,
      "axes": 4541,
      "Ġ13": 4542,
      "rer": 4543,
      "('%": 4544,
      "blocks": 4545,
      "peat": 4546,
      "Ġseed": 4547,
      "proj": 4548,
      "disp": 4549,
      "ĊĊĠĠĠĠĠ": 4550,
      "buf": 4551,
      "mul": 4552,
      "Ġast": 4553,
      "unch": 4554,
      "ensure": 4555,
      "åĬ": 4556,
      "SH": 4557,
      "keras": 4558,
      "()]": 4559,
      "Ġpool": 4560,
      "lear": 4561,
      "čĊĠĠĠĠĠĠĠĠ": 4562,
      "enum": 4563,
      "ĠOn": 4564,
      "rf": 4565,
      "Ġcir": 4566,
      "UE": 4567,
      "arge": 4568,
      "Ġinteger": 4569,
      "fun": 4570,
      "chine": 4571,
      "iki": 4572,
      "ãĢĤ": 4573,
      "amily": 4574,
      "eps": 4575,
      "inv": 4576,
      "translate": 4577,
      "ĊĊĊĠĠĠĠĠĠĠ": 4578,
      "spath": 4579,
      "Ġprofile": 4580,
      "~~~~~~~~": 4581,
      "Ġsyn": 4582,
      "Ver": 4583,
      "________": 4584,
      "Dist": 4585,
      "500": 4586,
      ".'": 4587,
      "(?": 4588,
      "blob": 4589,
      "segment": 4590,
      "Ġexisting": 4591,
      "selected": 4592,
      "serialize": 4593,
      "}}": 4594,
      "filepath": 4595,
      "ĠImport": 4596,
      "Ġexpress": 4597,
      "Ġabout": 4598,
      "Ph": 4599,
      "faces": 4600,
      "platform": 4601,
      "Exec": 4602,
      "holder": 4603,
      "vocab": 4604,
      "lon": 4605,
      "yncio": 4606,
      "Ġabove": 4607,
      "Ġactivation": 4608,
      "ront": 4609,
      "ĠSO": 4610,
      "Ref": 4611,
      "ĠPer": 4612,
      "reader": 4613,
      "sorted": 4614,
      "Ġcompliance": 4615,
      "Change": 4616,
      "orizont": 4617,
      "/\"": 4618,
      "Ġ----------------------------------------------------------------": 4619,
      "Ġspec": 4620,
      "aws": 4621,
      "optimizer": 4622,
      "ĠTuple": 4623,
      "Ġcalculate": 4624,
      "ĠNote": 4625,
      "Ġbutton": 4626,
      "disc": 4627,
      "bn": 4628,
      "Pool": 4629,
      "mid": 4630,
      "Ġforce": 4631,
      "Ġconver": 4632,
      "Ġevents": 4633,
      "prev": 4634,
      "Clo": 4635,
      "Ġsignal": 4636,
      "Ġhel": 4637,
      "ĠRE": 4638,
      "CI": 4639,
      "ulate": 4640,
      "endpoint": 4641,
      "Ġcontrol": 4642,
      "ĠTrans": 4643,
      "Ġatom": 4644,
      "ĠQtWidgets": 4645,
      "ĠPre": 4646,
      "Ġtimes": 4647,
      "dri": 4648,
      "js": 4649,
      "Ġelements": 4650,
      "Ġvalidation": 4651,
      "antity": 4652,
      "Ġneg": 4653,
      "Ġprev": 4654,
      "kw": 4655,
      "Ġlaw": 4656,
      "Ġbuffer": 4657,
      "abc": 4658,
      "TIME": 4659,
      "ancel": 4660,
      "ĠBAS": 4661,
      "rag": 4662,
      "DER": 4663,
      "INFO": 4664,
      "Ġinterface": 4665,
      "Variable": 4666,
      "Ġyear": 4667,
      "encoder": 4668,
      "ĠAl": 4669,
      "Ġsection": 4670,
      "opts": 4671,
      "ĠColumn": 4672,
      "radius": 4673,
      "čĊĠ": 4674,
      "Connection": 4675,
      "(\"-": 4676,
      "Ġ:]": 4677,
      "Que": 4678,
      "loaded": 4679,
      "Ġmu": 4680,
      "Back": 4681,
      "sigma": 4682,
      ".\\": 4683,
      "Ġmissing": 4684,
      "DITIONS": 4685,
      "')[": 4686,
      "upload": 4687,
      "Ġactive": 4688,
      "issue": 4689,
      "Ġtk": 4690,
      "ĠPRO": 4691,
      "MAX": 4692,
      "({\"": 4693,
      "PU": 4694,
      "çĶ¨": 4695,
      "slice": 4696,
      "ilar": 4697,
      "framework": 4698,
      "ayment": 4699,
      "VIC": 4700,
      "Ñĥ": 4701,
      "Ġzero": 4702,
      "estim": 4703,
      "Ġinvalid": 4704,
      "Ġfn": 4705,
      "shift": 4706,
      "moved": 4707,
      "ITE": 4708,
      "Float": 4709,
      "ĠSk": 4710,
      "Ġcore": 4711,
      "mbers": 4712,
      "ĠAd": 4713,
      "ĠĠĠĠĠĠĠĠĠĠĠĠĠĠĠ": 4714,
      "Ġcontainer": 4715,
      "ĠAuth": 4716,
      "Down": 4717,
      "ĠExample": 4718,
      "Ġstats": 4719,
      "orizontal": 4720,
      "symbol": 4721,
      "ĠDo": 4722,
      "New": 4723,
      "Ġlayers": 4724,
      "resources": 4725,
      "found": 4726,
      "Ġallowed": 4727,
      "Ġ202": 4728,
      "Ġface": 4729,
      "Ġpolicy": 4730,
      "Ġsage": 4731,
      "ART": 4732,
      "constants": 4733,
      "107": 4734,
      "GER": 4735,
      "mpt": 4736,
      "{}'.": 4737,
      "lain": 4738,
      "Ġgr": 4739,
      "Ġrepresen": 4740,
      "spy": 4741,
      "pus": 4742,
      "Ġcat": 4743,
      "simple": 4744,
      "DateTime": 4745,
      ">,": 4746,
      "Detail": 4747,
      "divid": 4748,
      "ĠBASIS": 4749,
      "Ġcalcul": 4750,
      "Ġassoci": 4751,
      "Admin": 4752,
      "ĠCONDITIONS": 4753,
      "uring": 4754,
      "Ġgoverning": 4755,
      "itive": 4756,
      "Ġscipy": 4757,
      "Ġfp": 4758,
      "sses": 4759,
      "ĠUpdate": 4760,
      "aut": 4761,
      "Ġadmin": 4762,
      "Mixin": 4763,
      "Ġenvironment": 4764,
      "Ġfeed": 4765,
      "pts": 4766,
      "fast": 4767,
      "Ġupdated": 4768,
      "Ġcollection": 4769,
      "icon": 4770,
      "chat": 4771,
      "merge": 4772,
      "Ġappro": 4773,
      "udio": 4774,
      "Loader": 4775,
      "Ġmemory": 4776,
      "rency": 4777,
      "Ġprimary": 4778,
      ")-": 4779,
      "-----": 4780,
      "æĺ": 4781,
      "Ġ18": 4782,
      "ressed": 4783,
      "{}\".": 4784,
      "rad": 4785,
      "abstract": 4786,
      "Ġstdout": 4787,
      "Ġvideo": 4788,
      "urse": 4789,
      "transpose": 4790,
      "Ġdepth": 4791,
      "Ne": 4792,
      "SP": 4793,
      "ILITY": 4794,
      "Ġurllib": 4795,
      "Var": 4796,
      "WN": 4797,
      "land": 4798,
      "qdm": 4799,
      "Ġpipeline": 4800,
      "ĠNumber": 4801,
      "Ġequal": 4802,
      "duce": 4803,
      "logs": 4804,
      "reduce": 4805,
      "']),": 4806,
      "Binary": 4807,
      "ĉĉĉ": 4808,
      "SELECT": 4809,
      "Ġadj": 4810,
      "phase": 4811,
      "usion": 4812,
      "Ġagreed": 4813,
      "Ġclick": 4814,
      "ĠUse": 4815,
      "istics": 4816,
      "safe": 4817,
      "Ġboth": 4818,
      "Ġcomment": 4819,
      "Ġ])": 4820,
      "targets": 4821,
      "Ġimplement": 4822,
      "imer": 4823,
      "ignore": 4824,
      "000000": 4825,
      "iti": 4826,
      "Ġeps": 4827,
      "va": 4828,
      "ftime": 4829,
      "Ġinstead": 4830,
      "helper": 4831,
      "ĠResponse": 4832,
      "}:": 4833,
      "note": 4834,
      "Ġlimitations": 4835,
      "'+": 4836,
      "assertIs": 4837,
      "Location": 4838,
      "Ġlower": 4839,
      "locity": 4840,
      "clip": 4841,
      "ĠFOR": 4842,
      "!\")": 4843,
      "exist": 4844,
      "Returns": 4845,
      "jpg": 4846,
      "ategories": 4847,
      "Ġ?": 4848,
      "assign": 4849,
      "Ġoprot": 4850,
      "Edit": 4851,
      "ĠJSON": 4852,
      "ĠUnit": 4853,
      "ametri": 4854,
      "alo": 4855,
      "uniform": 4856,
      "æĹ": 4857,
      "rm": 4858,
      "']))": 4859,
      "room": 4860,
      "pyplot": 4861,
      "sheet": 4862,
      "Device": 4863,
      "Ġda": 4864,
      "ĠMo": 4865,
      "Batch": 4866,
      "Linear": 4867,
      "400": 4868,
      "Ġbias": 4869,
      "encoding": 4870,
      "Port": 4871,
      "Ġio": 4872,
      "URE": 4873,
      "Ġshutil": 4874,
      "dropout": 4875,
      "lang": 4876,
      "complete": 4877,
      "MIN": 4878,
      "Ċĉĉĉĉĉ": 4879,
      "require": 4880,
      "Ġtokens": 4881,
      ")],": 4882,
      "lers": 4883,
      "Ġlogin": 4884,
      "Ġviews": 4885,
      "aussian": 4886,
      "SV": 4887,
      "Document": 4888,
      "Ġthreshold": 4889,
      "Ġpossible": 4890,
      "fd": 4891,
      "Ġds": 4892,
      "SA": 4893,
      "Ġscope": 4894,
      "percent": 4895,
      "Ġlr": 4896,
      "world": 4897,
      "ylabel": 4898,
      "ming": 4899,
      "Ġfun": 4900,
      "proxy": 4901,
      "AIN": 4902,
      ">\\": 4903,
      "tific": 4904,
      "usters": 4905,
      "åĽ": 4906,
      "semb": 4907,
      "Total": 4908,
      "duction": 4909,
      "Ġshort": 4910,
      "ye": 4911,
      "oment": 4912,
      "Ġpaths": 4913,
      "Ġacc": 4914,
      "mc": 4915,
      "ĠHttp": 4916,
      "Ġarch": 4917,
      "gree": 4918,
      "epochs": 4919,
      "rea": 4920,
      "experiment": 4921,
      "([\"": 4922,
      "void": 4923,
      "Ġretri": 4924,
      "Enum": 4925,
      "asis": 4926,
      "Ġsupported": 4927,
      "Ġrelated": 4928,
      "Ġsimple": 4929,
      "Ġlow": 4930,
      "ĠWh": 4931,
      "ture": 4932,
      "Ġtheir": 4933,
      "xed": 4934,
      "trained": 4935,
      "Ġregister": 4936,
      "Ġwx": 4937,
      "Ġpack": 4938,
      "inds": 4939,
      "Python": 4940,
      "Ġmaximum": 4941,
      "feat": 4942,
      "topic": 4943,
      "ĠMeta": 4944,
      "Entry": 4945,
      "aff": 4946,
      "parts": 4947,
      "bed": 4948,
      "road": 4949,
      "ĠError": 4950,
      ",)": 4951,
      "Ġdirection": 4952,
      "schedule": 4953,
      "proc": 4954,
      "rules": 4955,
      "cn": 4956,
      "provider": 4957,
      "()):": 4958,
      "arguments": 4959,
      "entication": 4960,
      "Ġwithin": 4961,
      "Ġreward": 4962,
      "super": 4963,
      "\"\")": 4964,
      "Ġjoin": 4965,
      "HERE": 4966,
      "rong": 4967,
      "ĠUnless": 4968,
      "Struct": 4969,
      "remote": 4970,
      "IST": 4971,
      "Ġutil": 4972,
      "ĠFunction": 4973,
      "Ġparsed": 4974,
      "Template": 4975,
      "gamma": 4976,
      "team": 4977,
      "xfe": 4978,
      "Ġcons": 4979,
      "Ġwin": 4980,
      "Iter": 4981,
      "ended": 4982,
      "balance": 4983,
      "}{": 4984,
      "åº": 4985,
      "HOST": 4986,
      "Meta": 4987,
      "Ġsepar": 4988,
      "Schema": 4989,
      "´ółģ": 4990,
      "Ġgroups": 4991,
      "Ġfast": 4992,
      "Ġstructure": 4993,
      "Ġwhat": 4994,
      "Ġaverage": 4995,
      "WARE": 4996,
      "Ġbit": 4997,
      "branch": 4998,
      "scribe": 4999,
      "Search": 5000,
      "ĠLoad": 5001,
      "zz": 5002,
      "ĠĠĠĠĠĠĠĠĠĠĠĠĠ": 5003,
      "firm": 5004,
      "scan": 5005,
      ")\"": 5006,
      "Ġcannot": 5007,
      "acters": 5008,
      "Train": 5009,
      "Ġder": 5010,
      "strftime": 5011,
      "hicle": 5012,
      ":',": 5013,
      "embedding": 5014,
      "arti": 5015,
      "ouse": 5016,
      "And": 5017,
      "lier": 5018,
      "300": 5019,
      "Ġreset": 5020,
      "Ġlicense": 5021,
      "xlabel": 5022,
      "Ġagain": 5023,
      "ĠFlag": 5024,
      "Ġunicode": 5025,
      "Ġpr": 5026,
      "coded": 5027,
      "datasets": 5028,
      "Ġ17": 5029,
      "ĠRegister": 5030,
      "diag": 5031,
      "props": 5032,
      "once": 5033,
      "ULL": 5034,
      "tector": 5035,
      "Stream": 5036,
      "Dec": 5037,
      "Length": 5038,
      "Normal": 5039,
      "Ġcounter": 5040,
      "Top": 5041,
      "gent": 5042,
      "gl": 5043,
      "ridge": 5044,
      "Ġoperations": 5045,
      "constant": 5046,
      "Ġstorage": 5047,
      ")\",": 5048,
      "alg": 5049,
      "iler": 5050,
      "ĠLOG": 5051,
      "404": 5052,
      "mg": 5053,
      "eras": 5054,
      "requires": 5055,
      "atial": 5056,
      "detail": 5057,
      "Ġcard": 5058,
      "If": 5059,
      "ĠĠĠĠĠĠĠĠĠĠĠĠĠĠ": 5060,
      "eno": 5061,
      "agement": 5062,
      "tour": 5063,
      "Sequence": 5064,
      "ird": 5065,
      "ampler": 5066,
      "EP": 5067,
      "Sign": 5068,
      "endswith": 5069,
      "ĠText": 5070,
      "checkpoint": 5071,
      "ticks": 5072,
      "country": 5073,
      "running": 5074,
      "uting": 5075,
      "Work": 5076,
      "slot": 5077,
      "ullable": 5078,
      "MENT": 5079,
      "Ġ'{}": 5080,
      "ĠDis": 5081,
      "lour": 5082,
      "bus": 5083,
      "fiers": 5084,
      "Ġnumbers": 5085,
      "NS": 5086,
      "ually": 5087,
      "Ġunits": 5088,
      ")\\": 5089,
      "ĊĠĠĠĠĠĠĠĠĠĠĠĠĠĠĠĠĠĠĠĠĠĠĠĠĠĠĠĠĠĠĠĠĠĠĠĠĠĠĠĠĠĠĠĠĠĠĠĠĠĠĠĠĠĠĠĠĠĠĠĠĠĠĠĠ": 5090,
      "Ġdistribution": 5091,
      "Ġmember": 5092,
      "Ġarr": 5093,
      "Ġplan": 5094,
      "Ġnote": 5095,
      "Ġestim": 5096,
      "Ġmapping": 5097,
      "ä¸Ģ": 5098,
      "Ġflow": 5099,
      "ond": 5100,
      "Ġcy": 5101,
      "Ġglob": 5102,
      "fully": 5103,
      "ja": 5104,
      "gate": 5105,
      "Loss": 5106,
      "Ġsigma": 5107,
      "ational": 5108,
      "requests": 5109,
      "oid": 5110,
      "ĠHe": 5111,
      "black": 5112,
      "lid": 5113,
      "DC": 5114,
      "Ġ'')": 5115,
      "services": 5116,
      "Ġseg": 5117,
      "Ġchain": 5118,
      "Ð°Ð": 5119,
      "Ġcost": 5120,
      "Ġstri": 5121,
      "ĠST": 5122,
      "Ġpylint": 5123,
      "wrap": 5124,
      "bbox": 5125,
      "configuration": 5126,
      "elements": 5127,
      "Failed": 5128,
      "ji": 5129,
      "Main": 5130,
      "Ġrand": 5131,
      "Ġxml": 5132,
      "Ġrank": 5133,
      "effici": 5134,
      "done": 5135,
      "kes": 5136,
      "bottom": 5137,
      "ilon": 5138,
      "Open": 5139,
      "_%": 5140,
      "roy": 5141,
      "Ġdele": 5142,
      "Ġdriver": 5143,
      "ĊĠĠĠĠĠĠĠĠĠĠĠĠĠĠĠĠĠĠĠĠĠĠĠĠĠĠĠĠĠĠĠĠĠĠĠĠĠĠ": 5144,
      "FR": 5145,
      "Ġ25": 5146,
      "reverse": 5147,
      "dl": 5148,
      "Link": 5149,
      "ao": 5150,
      "ArgumentParser": 5151,
      "Ġsummary": 5152,
      "bad": 5153,
      "white": 5154,
      "Ġremote": 5155,
      "éĩ": 5156,
      "čĊĠĠĠĠčĊĠĠĠ": 5157,
      "Ġbucket": 5158,
      "PRE": 5159,
      "argin": 5160,
      "Ġperform": 5161,
      "condition": 5162,
      "Tests": 5163,
      "Job": 5164,
      "ValueError": 5165,
      "cipe": 5166,
      "DEBUG": 5167,
      "hexrays": 5168,
      "Ġactions": 5169,
      "ĠNode": 5170,
      "Ġsteps": 5171,
      "Range": 5172,
      "timeError": 5173,
      "Ġmerge": 5174,
      "Ġsite": 5175,
      "æį": 5176,
      "undle": 5177,
      "before": 5178,
      "dividual": 5179,
      "some": 5180,
      "Ġcoordinates": 5181,
      "ea": 5182,
      "ĠAs": 5183,
      "instances": 5184,
      "learning": 5185,
      "fold": 5186,
      "grade": 5187,
      "tyle": 5188,
      "Ġcurr": 5189,
      "delay": 5190,
      "chemy": 5191,
      "packages": 5192,
      "LU": 5193,
      "Ġangle": 5194,
      "ferences": 5195,
      "Ġ40": 5196,
      "Ġscores": 5197,
      "Ġcar": 5198,
      "Ġendpoint": 5199,
      "Ġbeta": 5200,
      "__.__": 5201,
      "false": 5202,
      "STAT": 5203,
      "Ġ37": 5204,
      "Off": 5205,
      "enchmark": 5206,
      "Tuple": 5207,
      "sol": 5208,
      "Ġsel": 5209,
      "Ġids": 5210,
      "Ġabsolute": 5211,
      "NUM": 5212,
      "aving": 5213,
      "(\\": 5214,
      "sha": 5215,
      "pted": 5216,
      "ĠRequest": 5217,
      "licit": 5218,
      "Ġextension": 5219,
      "abspath": 5220,
      "ticles": 5221,
      "ĠIP": 5222,
      "curr": 5223,
      "latest": 5224,
      "boot": 5225,
      "Ġbar": 5226,
      "Ġexecute": 5227,
      "ĠClient": 5228,
      "noise": 5229,
      "Program": 5230,
      "ula": 5231,
      "media": 5232,
      "bins": 5233,
      "Auto": 5234,
      "Ġbyte": 5235,
      "Ġbackend": 5236,
      "ĠBo": 5237,
      "ĠsetUp": 5238,
      "Application": 5239,
      "VENT": 5240,
      "Ġcharacter": 5241,
      "cogn": 5242,
      "parametri": 5243,
      "structure": 5244,
      "rgb": 5245,
      "Ġep": 5246,
      "xfc": 5247,
      "emb": 5248,
      "voice": 5249,
      "ĠSQL": 5250,
      "ports": 5251,
      "Ġopts": 5252,
      "ĠTensor": 5253,
      "Ġho": 5254,
      "],[": 5255,
      "Ġway": 5256,
      "ONE": 5257,
      "JSON": 5258,
      "dx": 5259,
      "999": 5260,
      "accuracy": 5261,
      "deep": 5262,
      "Ġpl": 5263,
      "Format": 5264,
      "{\"": 5265,
      "mar": 5266,
      "udent": 5267,
      "Ass": 5268,
      "tw": 5269,
      "Ġdoesn": 5270,
      "ĠKeyError": 5271,
      "tected": 5272,
      "MPLE": 5273,
      "big": 5274,
      "Thread": 5275,
      "âĶĢâĶĢ": 5276,
      "person": 5277,
      "ABILITY": 5278,
      "tty": 5279,
      "byte": 5280,
      "Ġfilters": 5281,
      "Ġ))": 5282,
      "updated": 5283,
      "Ġlet": 5284,
      "akes": 5285,
      "progress": 5286,
      "legend": 5287,
      "enable": 5288,
      "Ġaxes": 5289,
      "sess": 5290,
      "ros": 5291,
      "audio": 5292,
      "Ġtqdm": 5293,
      "={\"": 5294,
      "You": 5295,
      "ĠCO": 5296,
      "MAT": 5297,
      "slug": 5298,
      "ORS": 5299,
      "ĠMy": 5300,
      "cycle": 5301,
      "Optional": 5302,
      "Row": 5303,
      "System": 5304,
      "Ġ\"+": 5305,
      "Ġperiod": 5306,
      "answer": 5307,
      "cross": 5308,
      "gui": 5309,
      "mooth": 5310,
      "Ġmatches": 5311,
      "Ã¡": 5312,
      "033": 5313,
      "eric": 5314,
      "Ġwho": 5315,
      "mes": 5316,
      "One": 5317,
      "ifest": 5318,
      "Ġgt": 5319,
      "Ã£": 5320,
      "nx": 5321,
      "cii": 5322,
      "JE": 5323,
      "Ġwarnings": 5324,
      "cla": 5325,
      "Ġarea": 5326,
      "FTWARE": 5327,
      "ĠOutput": 5328,
      "Ġë": 5329,
      "chor": 5330,
      "ĠOpen": 5331,
      "ech": 5332,
      "Ġ19": 5333,
      "ilities": 5334,
      "tore": 5335,
      "logits": 5336,
      "while": 5337,
      "Ã§": 5338,
      ":])": 5339,
      "Ġfree": 5340,
      "Mon": 5341,
      "havi": 5342,
      "mas": 5343,
      "Ġneeded": 5344,
      "Ġtargets": 5345,
      "ighbor": 5346,
      "iddleware": 5347,
      "jor": 5348,
      "enate": 5349,
      "enario": 5350,
      "Ġapplication": 5351,
      "================================================================": 5352,
      "Ġside": 5353,
      "bg": 5354,
      "missing": 5355,
      "Ġscreen": 5356,
      "Obj": 5357,
      "optional": 5358,
      "Ġdirect": 5359,
      "Pass": 5360,
      "]/": 5361,
      "ives": 5362,
      "Series": 5363,
      "Ġmany": 5364,
      "sumer": 5365,
      "wb": 5366,
      "intern": 5367,
      "Ġrepo": 5368,
      "udo": 5369,
      "\\\"": 5370,
      "NotFound": 5371,
      "orn": 5372,
      ")')": 5373,
      "average": 5374,
      "ACE": 5375,
      "makedirs": 5376,
      "two": 5377,
      "801": 5378,
      "Ġfake": 5379,
      "'^": 5380,
      "wt": 5381,
      "regex": 5382,
      "SC": 5383,
      "Ġtile": 5384,
      "returns": 5385,
      "snapshot": 5386,
      "Position": 5387,
      "dc": 5388,
      "Ġproblem": 5389,
      "Ġ).": 5390,
      "energy": 5391,
      "quences": 5392,
      "ĠValid": 5393,
      "camera": 5394,
      "suffix": 5395,
      "Ġsince": 5396,
      "Ġ24": 5397,
      "iver": 5398,
      "Attribute": 5399,
      "æł": 5400,
      "enc": 5401,
      "positions": 5402,
      "]}": 5403,
      "resize": 5404,
      "links": 5405,
      "Ġprediction": 5406,
      "CONFIG": 5407,
      "ette": 5408,
      "Ġsegment": 5409,
      "Ġgamma": 5410,
      "Ã£o": 5411,
      "MT": 5412,
      "ĠRa": 5413,
      "dimension": 5414,
      "zen": 5415,
      "padding": 5416,
      "structor": 5417,
      "Project": 5418,
      "ptr": 5419,
      "ĠInitial": 5420,
      "Ñı": 5421,
      "ìĿ": 5422,
      "origin": 5423,
      "Network": 5424,
      "Ġassociated": 5425,
      "å¼": 5426,
      "formed": 5427,
      "dst": 5428,
      "åĩ": 5429,
      "same": 5430,
      "codes": 5431,
      "123": 5432,
      "straints": 5433,
      "controller": 5434,
      "Ġexpect": 5435,
      "2020": 5436,
      "Ġinterval": 5437,
      "free": 5438,
      "Ġlook": 5439,
      "oe": 5440,
      "Record": 5441,
      "Ġinv": 5442,
      "examples": 5443,
      "band": 5444,
      "cid": 5445,
      "Ġdrop": 5446,
      "Ġcondition": 5447,
      ".)": 5448,
      "Component": 5449,
      "parametrize": 5450,
      "ObjectName": 5451,
      "\"+": 5452,
      "Ġpower": 5453,
      "Ġuuid": 5454,
      "basename": 5455,
      "Ġconditions": 5456,
      "Order": 5457,
      "otor": 5458,
      "Ġobs": 5459,
      "Ġ(-": 5460,
      "ĠNO": 5461,
      "ółĢ": 5462,
      "environment": 5463,
      "Sum": 5464,
      "double": 5465,
      "xbf": 5466,
      "push": 5467,
      "ä¸ª": 5468,
      "Ġissue": 5469,
      "Ġverify": 5470,
      "publish": 5471,
      "Ġprovide": 5472,
      "Ab": 5473,
      "glob": 5474,
      "Ġedit": 5475,
      "QtCore": 5476,
      "eries": 5477,
      "sertion": 5478,
      "Ġplatform": 5479,
      "ider": 5480,
      "Params": 5481,
      "Cap": 5482,
      "ĠSOFTWARE": 5483,
      "Ġdst": 5484,
      "ACT": 5485,
      "IMIT": 5486,
      "NING": 5487,
      "mem": 5488,
      "tracts": 5489,
      "lev": 5490,
      "dian": 5491,
      ")'": 5492,
      "MODEL": 5493,
      "Ġ128": 5494,
      "warn": 5495,
      "city": 5496,
      "Ġts": 5497,
      "calc": 5498,
      "setObjectName": 5499,
      "protocol": 5500,
      "ighbors": 5501,
      "aker": 5502,
      "Ġcm": 5503,
      "Description": 5504,
      "MPL": 5505,
      "Ġflat": 5506,
      "crop": 5507,
      "setText": 5508,
      "Ġbeing": 5509,
      "Ġtx": 5510,
      "alled": 5511,
      "rtual": 5512,
      "Ġstandard": 5513,
      "Ġprep": 5514,
      "hot": 5515,
      "Contain": 5516,
      "...\")": 5517,
      "utable": 5518,
      "Ġadditional": 5519,
      "DATE": 5520,
      "Ġbbox": 5521,
      "ĠRead": 5522,
      "Ġcombin": 5523,
      "Ġri": 5524,
      "Ġplay": 5525,
      "pin": 5526,
      "maps": 5527,
      "ights": 5528,
      "quential": 5529,
      "$',": 5530,
      "iso": 5531,
      "dash": 5532,
      "rum": 5533,
      "arse": 5534,
      "ĠRo": 5535,
      "819": 5536,
      "Ġstrings": 5537,
      "ĊĠĠĠĠĠĠĠĠĠĠĠĠĠĠĠĠĠĠĠĠĠĠĠĠĠĠĠĠĠĠĠĠĠĠĠĠĠĠĠĠĠ": 5538,
      "BL": 5539,
      "asarray": 5540,
      "flatten": 5541,
      "[(": 5542,
      "loor": 5543,
      "Ġotherwise": 5544,
      "uous": 5545,
      "Ġflags": 5546,
      "omatic": 5547,
      "READ": 5548,
      "xef": 5549,
      "Norm": 5550,
      "Ġbelow": 5551,
      "101": 5552,
      "disk": 5553,
      "Profile": 5554,
      "Ġ>>": 5555,
      "assertEquals": 5556,
      "tolist": 5557,
      "ered": 5558,
      "Ġcolors": 5559,
      "Ġcommit": 5560,
      "Ġoperator": 5561,
      "pm": 5562,
      "methods": 5563,
      "chron": 5564,
      "pot": 5565,
      "*.": 5566,
      "Sc": 5567,
      "nections": 5568,
      "Ġindent": 5569,
      "---": 5570,
      "xcf": 5571,
      "serve": 5572,
      "Ġwriter": 5573,
      "Ġplugin": 5574,
      "Tri": 5575,
      "ĠWHERE": 5576,
      "AUTH": 5577,
      "Select": 5578,
      "]-": 5579,
      "Ġindic": 5580,
      "Ġcould": 5581,
      "kit": 5582,
      "Ġcorresponding": 5583,
      "ðŁı´ółģ": 5584,
      "Ġdev": 5585,
      "Channel": 5586,
      "duced": 5587,
      "Ġiprot": 5588,
      "unic": 5589,
      "']]": 5590,
      "Ġwidget": 5591,
      "Ġ'#": 5592,
      "/<": 5593,
      "green": 5594,
      "Ġkeras": 5595,
      "aper": 5596,
      "btn": 5597,
      "Ġlon": 5598,
      "032": 5599,
      "extension": 5600,
      "measure": 5601,
      "builder": 5602,
      "sur": 5603,
      "assertFalse": 5604,
      "lookup": 5605,
      "isfile": 5606,
      "ibr": 5607,
      "Multi": 5608,
      "contact": 5609,
      "_)": 5610,
      "Ġperson": 5611,
      "0001": 5612,
      "ĠNe": 5613,
      "Bar": 5614,
      "Ġfname": 5615,
      "Ġtesting": 5616,
      "Ġrights": 5617,
      "goal": 5618,
      "dp": 5619,
      "REG": 5620,
      "sep": 5621,
      "Ġ\"{}": 5622,
      "Vector": 5623,
      "ÑĮ": 5624,
      "Ġquestion": 5625,
      "ĠRuntimeError": 5626,
      "sr": 5627,
      "Ġorigin": 5628,
      "prep": 5629,
      "scene": 5630,
      "Ġsuch": 5631,
      "internal": 5632,
      "tel": 5633,
      "JECT": 5634,
      "ĠSE": 5635,
      "Ġdependencies": 5636,
      "effect": 5637,
      "operation": 5638,
      "/(": 5639,
      "Ġforms": 5640,
      "phi": 5641,
      "434": 5642,
      "Ġsaved": 5643,
      "ĠClass": 5644,
      "Ġnullable": 5645,
      "Delete": 5646,
      "Sk": 5647,
      "><": 5648,
      "xbd": 5649,
      "cesses": 5650,
      "Target": 5651,
      "Ġanswer": 5652,
      "Ġfetch": 5653,
      "Ġcomplete": 5654,
      "should": 5655,
      "ĠIndex": 5656,
      "contents": 5657,
      "Ġyaml": 5658,
      "entropy": 5659,
      "Ġasyncio": 5660,
      "Ġpathlib": 5661,
      "Ġexport": 5662,
      "Area": 5663,
      "DES": 5664,
      "xdf": 5665,
      "CM": 5666,
      "program": 5667,
      "functions": 5668,
      "changed": 5669,
      "KEN": 5670,
      "Ġtake": 5671,
      "Ġsetting": 5672,
      "My": 5673,
      "entities": 5674,
      "Ġmesh": 5675,
      "Ġrospy": 5676,
      "begin": 5677,
      "VERSION": 5678,
      "acing": 5679,
      ")(": 5680,
      "router": 5681,
      "rector": 5682,
      "------------------------": 5683,
      "align": 5684,
      "Ġmost": 5685,
      "='',": 5686,
      "LOW": 5687,
      "verify": 5688,
      "Ġmonth": 5689,
      "olds": 5690,
      "Ġpermission": 5691,
      "INTER": 5692,
      "decoder": 5693,
      "alias": 5694,
      "Ġentries": 5695,
      "sage": 5696,
      "scalar": 5697,
      "wrapper": 5698,
      "organ": 5699,
      "FLAGS": 5700,
      "ali": 5701,
      "fb": 5702,
      "ffect": 5703,
      "iltin": 5704,
      "Exp": 5705,
      "99999999": 5706,
      "Ġrelative": 5707,
      "Names": 5708,
      "utc": 5709,
      "hood": 5710,
      "ru": 5711,
      "sizes": 5712,
      "Ġmeasure": 5713,
      "Ġinsert": 5714,
      "strument": 5715,
      "Ġpredictions": 5716,
      "ane": 5717,
      "={}": 5718,
      "Transform": 5719,
      "rack": 5720,
      "Ġparti": 5721,
      "Api": 5722,
      "Ġ</": 5723,
      "Ġbegin": 5724,
      "Style": 5725,
      "Ñĭ": 5726,
      "sentence": 5727,
      "Ġspecify": 5728,
      "Ġchannels": 5729,
      "NOT": 5730,
      "Ġwould": 5731,
      "kind": 5732,
      "Ġoc": 5733,
      "Ġstates": 5734,
      "Ġlibrary": 5735,
      "Ġshell": 5736,
      "ied": 5737,
      "ĠArgument": 5738,
      "ested": 5739,
      "vie": 5740,
      "listdir": 5741,
      "seline": 5742,
      "records": 5743,
      "Ġchoices": 5744,
      "ĠLoc": 5745,
      "('_": 5746,
      "external": 5747,
      "transaction": 5748,
      "'})": 5749,
      "============": 5750,
      "duc": 5751,
      "Ġduration": 5752,
      "ĠQtGui": 5753,
      "Ġstar": 5754,
      "Ġlearning": 5755,
      "}\",": 5756,
      "ĠExt": 5757,
      "week": 5758,
      "FIL": 5759,
      "USE": 5760,
      "OB": 5761,
      "processed": 5762,
      "security": 5763,
      "mkdir": 5764,
      "Ġnb": 5765,
      "xde": 5766,
      "xac": 5767,
      "tol": 5768,
      "submit": 5769,
      "Ġalways": 5770,
      "Header": 5771,
      "rd": 5772,
      "MAP": 5773,
      "depend": 5774,
      "lide": 5775,
      "ĠLI": 5776,
      "writ": 5777,
      "Author": 5778,
      "ells": 5779,
      "ĠEN": 5780,
      "]=": 5781,
      "Ġlinear": 5782,
      "ĠMessage": 5783,
      "âĸĪâĸĪ": 5784,
      "åľ": 5785,
      "Matrix": 5786,
      "aris": 5787,
      "Ġprec": 5788,
      "Ġtool": 5789,
      "rup": 5790,
      "%%": 5791,
      "Ġmeans": 5792,
      "ÐµÐ": 5793,
      "Ġphase": 5794,
      "tificate": 5795,
      "titem": 5796,
      "Ġnormalize": 5797,
      "ĠEvent": 5798,
      "cnt": 5799,
      "stock": 5800,
      "ĊĉĊ": 5801,
      "lists": 5802,
      "ava": 5803,
      "ĠĊ": 5804,
      ")**": 5805,
      "Ġfixed": 5806,
      "Ġbi": 5807,
      "THER": 5808,
      "workers": 5809,
      "ogram": 5810,
      "Ġexpression": 5811,
      "Ġbuf": 5812,
      "ĊĠĠĠĠĠĠĠĠĠĠĠĠĠĠĠĠĠĠĠĠĠĠĠĠĠĠĠĠĠĠĠĠĠĠĠĠĠĠĠĠĠĠĠĠĠĠĠ": 5813,
      "bet": 5814,
      "Account": 5815,
      "gits": 5816,
      "inner": 5817,
      "CAS": 5818,
      "ras": 5819,
      "uess": 5820,
      "asset": 5821,
      "Ġworld": 5822,
      "Ġdataframe": 5823,
      "Sup": 5824,
      "xce": 5825,
      "savefig": 5826,
      "ĠLanguage": 5827,
      "ransport": 5828,
      "IntegerField": 5829,
      "GS": 5830,
      "éĢ": 5831,
      "Ġps": 5832,
      "Ġsolution": 5833,
      "apps": 5834,
      "Ġcharacters": 5835,
      "ĠDes": 5836,
      "xaf": 5837,
      "ółģ¿": 5838,
      "Const": 5839,
      "ĠGo": 5840,
      "æī": 5841,
      "Boolean": 5842,
      "ball": 5843,
      "primary": 5844,
      "Unit": 5845,
      "xdb": 5846,
      "analy": 5847,
      "Ġbackground": 5848,
      "ĠIter": 5849,
      "ĊĠĠĠĠĠĠĠĠĠĠĠĠĠĠĠĠĠĠĠĠĠĠĠĠĠĠĠĠĠĠĠĠĠĠĠĠĠĠĠĠĠĠ": 5850,
      "Ġbottom": 5851,
      "Ġspeed": 5852,
      "Ġ500": 5853,
      "mix": 5854,
      "Ġsentence": 5855,
      "ergy": 5856,
      "initializer": 5857,
      "supported": 5858,
      "ools": 5859,
      "Ġidenti": 5860,
      "cons": 5861,
      "Ġthreading": 5862,
      "den": 5863,
      "xfd": 5864,
      "mis": 5865,
      "anner": 5866,
      "tils": 5867,
      "127": 5868,
      "ka": 5869,
      "processor": 5870,
      "Custom": 5871,
      "Ġpresent": 5872,
      "Ġterm": 5873,
      "æį®": 5874,
      "Pi": 5875,
      "Ġseries": 5876,
      "Lib": 5877,
      "idual": 5878,
      "ï¼ļ": 5879,
      "Ġmodify": 5880,
      "orders": 5881,
      "xfb": 5882,
      "Ġinitialize": 5883,
      "modified": 5884,
      "Ġalgorithm": 5885,
      "Step": 5886,
      "Ġtermin": 5887,
      "Ġupper": 5888,
      "LA": 5889,
      "Ġdisk": 5890,
      "ĠAttribute": 5891,
      "cwd": 5892,
      "prediction": 5893,
      "reply": 5894,
      "Ġchanged": 5895,
      "linspace": 5896,
      "Spec": 5897,
      "Ġ~": 5898,
      "RIGHT": 5899,
      "ROOT": 5900,
      "Ġdefaults": 5901,
      "Ġinstances": 5902,
      "VICE": 5903,
      "TA": 5904,
      "Rect": 5905,
      "Ġsmall": 5906,
      "Ġupload": 5907,
      "Pub": 5908,
      "}',": 5909,
      "switch": 5910,
      "Val": 5911,
      "Host": 5912,
      "ĠOTHER": 5913,
      "Settings": 5914,
      "Ġclear": 5915,
      "Ġexperiment": 5916,
      "Man": 5917,
      "ascii": 5918,
      "Ġfo": 5919,
      "credentials": 5920,
      "alette": 5921,
      "Ġnd": 5922,
      "ĠBy": 5923,
      "('<": 5924,
      "Av": 5925,
      "private": 5926,
      "shell": 5927,
      "åį": 5928,
      "xeb": 5929,
      "riterion": 5930,
      "}/{": 5931,
      "PH": 5932,
      "Ġprice": 5933,
      "Width": 5934,
      "Ġgenerator": 5935,
      "+=": 5936,
      "ĠDef": 5937,
      "ialog": 5938,
      "ĠInter": 5939,
      "xbe": 5940,
      "localhost": 5941,
      "crement": 5942,
      "pairs": 5943,
      "Interface": 5944,
      "Ġput": 5945,
      "identity": 5946,
      "ffic": 5947,
      "liter": 5948,
      "refresh": 5949,
      "Metri": 5950,
      "Build": 5951,
      "xfa": 5952,
      "ĠFl": 5953,
      "ighted": 5954,
      "Ġ2020": 5955,
      "Ġfra": 5956,
      "xbc": 5957,
      "Ġ'+": 5958,
      "geo": 5959,
      "okie": 5960,
      "library": 5961,
      "UID": 5962,
      "////": 5963,
      "weet": 5964,
      "attach": 5965,
      "subprocess": 5966,
      "BASE": 5967,
      "Ġowner": 5968,
      "geometry": 5969,
      "Types": 5970,
      "termine": 5971,
      "Ġreason": 5972,
      "ä¿": 5973,
      "ĠSystem": 5974,
      "Ġdimensions": 5975,
      ")\")": 5976,
      "Match": 5977,
      "VID": 5978,
      "Ġdestination": 5979,
      "|'": 5980,
      "oration": 5981,
      "decor": 5982,
      "Ġrequires": 5983,
      "ulator": 5984,
      "ĠOS": 5985,
      "ä¸º": 5986,
      "æĺ¯": 5987,
      "ĠMan": 5988,
      "1234": 5989,
      "decay": 5990,
      "Ġnotice": 5991,
      "Grid": 5992,
      "ĠPub": 5993,
      "Ġroute": 5994,
      "Ġprogress": 5995,
      "Ġprotein": 5996,
      "UI": 5997,
      ":\")": 5998,
      "rpc": 5999,
      "worker": 6000,
      "pkg": 6001,
      "iloc": 6002,
      "ĠMake": 6003,
      "ĠMock": 6004,
      "expression": 6005,
      "Ġstage": 6006,
      "ysql": 6007,
      "monitor": 6008,
      "ãģ®": 6009,
      "COLOR": 6010,
      "imshow": 6011,
      "Jo": 6012,
      "Ġcms": 6013,
      "Ġfontsize": 6014,
      "cursi": 6015,
      "flush": 6016,
      "angles": 6017,
      "ARY": 6018,
      "fies": 6019,
      "Ġaccuracy": 6020,
      "]]:": 6021,
      "character": 6022,
      "åıĸ": 6023,
      "Track": 6024,
      "xcb": 6025,
      "Ali": 6026,
      "partition": 6027,
      "Ġidentifier": 6028,
      "Ġfix": 6029,
      "episode": 6030,
      "linalg": 6031,
      "Ġnoise": 6032,
      "pickle": 6033,
      "hi": 6034,
      "aug": 6035,
      ":'": 6036,
      "alchemy": 6037,
      "LED": 6038,
      "mass": 6039,
      "ges": 6040,
      "ĠĊĠĠĠĠĠĠĠĠĠĠĠĠĠĠĠ": 6041,
      "ĠAS": 6042,
      "sired": 6043,
      "ality": 6044,
      "multiple": 6045,
      "ĠDB": 6046,
      "Ġvia": 6047,
      "ANG": 6048,
      "Over": 6049,
      "Go": 6050,
      "roid": 6051,
      "=='": 6052,
      "Ġproj": 6053,
      "Ġlock": 6054,
      "serializer": 6055,
      "istration": 6056,
      "itter": 6057,
      "Ġbranch": 6058,
      "uman": 6059,
      "Url": 6060,
      "Ġtasks": 6061,
      "canvas": 6062,
      "Ġreceived": 6063,
      "ital": 6064,
      "share": 6065,
      "Control": 6066,
      "(',": 6067,
      "Pol": 6068,
      "Ġhour": 6069,
      "Ġencoder": 6070,
      "integer": 6071,
      "Ġcontents": 6072,
      "CADE": 6073,
      "tar": 6074,
      "dictionary": 6075,
      "lished": 6076,
      "xs": 6077,
      "Ġgrad": 6078,
      "tz": 6079,
      "dn": 6080,
      "Ġrequire": 6081,
      "Ġradius": 6082,
      "pn": 6083,
      "pet": 6084,
      "Rout": 6085,
      "xae": 6086,
      "Ġspect": 6087,
      "addWidget": 6088,
      "Ġca": 6089,
      "spa": 6090,
      "osition": 6091,
      "defined": 6092,
      "Ġcamera": 6093,
      "activation": 6094,
      "failed": 6095,
      "Parameters": 6096,
      "Ġmarker": 6097,
      "=[]": 6098,
      "Ġsleep": 6099,
      "Ġsymbol": 6100,
      "pages": 6101,
      "ĠObject": 6102,
      "scatter": 6103,
      "panel": 6104,
      "perm": 6105,
      "Ġmodules": 6106,
      "ev": 6107,
      "Ġdeep": 6108,
      "Ġlayout": 6109,
      "Ġtab": 6110,
      "OO": 6111,
      "Ġvol": 6112,
      "Ġengine": 6113,
      "Ġdocumentation": 6114,
      "Ġremain": 6115,
      "gz": 6116,
      "ram": 6117,
      "2017": 6118,
      "wall": 6119,
      "Ġenter": 6120,
      "MAGE": 6121,
      "Rel": 6122,
      "cing": 6123,
      "chan": 6124,
      "accept": 6125,
      "oring": 6126,
      "ĠTemp": 6127,
      "limiter": 6128,
      "Ġavg": 6129,
      "Ġteam": 6130,
      "Pa": 6131,
      "analysis": 6132,
      "defaults": 6133,
      "ĠHttpResponse": 6134,
      "Ġpackages": 6135,
      "break": 6136,
      "imation": 6137,
      "visit": 6138,
      "ĠTask": 6139,
      "ĠAR": 6140,
      "scripts": 6141,
      ",))": 6142,
      "](": 6143,
      "Ġserializer": 6144,
      "å½": 6145,
      "aves": 6146,
      "nc": 6147,
      "Ġwrapper": 6148,
      "Ġfinally": 6149,
      "ĠLine": 6150,
      "signed": 6151,
      "Ġterms": 6152,
      "activ": 6153,
      "Ġ256": 6154,
      "TIC": 6155,
      "Ġdisp": 6156,
      "Sample": 6157,
      "dy": 6158,
      "Ġdefine": 6159,
      "Cluster": 6160,
      "tics": 6161,
      "TS": 6162,
      "eam": 6163,
      "Ġtoo": 6164,
      "Ġenable": 6165,
      "hello": 6166,
      "FE": 6167,
      "Ġstored": 6168,
      "Vis": 6169,
      "Ġ*,": 6170,
      "usage": 6171,
      "DU": 6172,
      "===": 6173,
      "ĠConv": 6174,
      "mn": 6175,
      "sources": 6176,
      "uding": 6177,
      "512": 6178,
      "Sim": 6179,
      "Ġtheta": 6180,
      "xec": 6181,
      "resses": 6182,
      "CONT": 6183,
      "ks": 6184,
      "LEN": 6185,
      "Ġms": 6186,
      "='<": 6187,
      "background": 6188,
      "contains": 6189,
      "inger": 6190,
      "3333": 6191,
      "Ġedges": 6192,
      "ðŁĳ": 6193,
      "Ġ102": 6194,
      "2018": 6195,
      "locations": 6196,
      "ĊĊĉĉ": 6197,
      "!')": 6198,
      "Ġ400": 6199,
      "Ġduring": 6200,
      "predictions": 6201,
      "Access": 6202,
      "Ġcop": 6203,
      "Queue": 6204,
      "probs": 6205,
      "agic": 6206,
      "abstractmethod": 6207,
      "urnal": 6208,
      "Ġchanges": 6209,
      "ygon": 6210,
      "Ġlists": 6211,
      "wn": 6212,
      "cluding": 6213,
      "Ġneeds": 6214,
      "cred": 6215,
      "Ġmi": 6216,
      "atest": 6217,
      "sym": 6218,
      "Ġslice": 6219,
      "Word": 6220,
      "uest": 6221,
      "ERS": 6222,
      "...,": 6223,
      "xpath": 6224,
      "Ġparts": 6225,
      "tur": 6226,
      "concatenate": 6227,
      "hostname": 6228,
      "xca": 6229,
      "PY": 6230,
      "ventory": 6231,
      "Plot": 6232,
      "Ġconstants": 6233,
      "âķĲ": 6234,
      "robot": 6235,
      "Mark": 6236,
      "Post": 6237,
      "projects": 6238,
      "poly": 6239,
      "401": 6240,
      "ientation": 6241,
      "ring": 6242,
      "Ġinte": 6243,
      "phone": 6244,
      "xad": 6245,
      "AV": 6246,
      "shared": 6247,
      "Reference": 6248,
      "abilities": 6249,
      "čĊčĊĠĠĠĠĠĠĠĠĠĠĠ": 6250,
      "Ġgoogle": 6251,
      "uplicate": 6252,
      "cam": 6253,
      "Ġmaster": 6254,
      "Ġcross": 6255,
      "ĠGroup": 6256,
      "fixed": 6257,
      "Ġloaded": 6258,
      "xyz": 6259,
      "Ġfalse": 6260,
      "ĠCommand": 6261,
      "fidence": 6262,
      "exclude": 6263,
      "2944": 6264,
      "Any": 6265,
      "tences": 6266,
      "Ġleg": 6267,
      "Hist": 6268,
      "uch": 6269,
      "Files": 6270,
      "ĠUni": 6271,
      "Feature": 6272,
      "Can": 6273,
      "ĠForm": 6274,
      "CRIP": 6275,
      "ĠVariable": 6276,
      "``.": 6277,
      "Collection": 6278,
      "LINE": 6279,
      "Ġenti": 6280,
      "FIX": 6281,
      ",),": 6282,
      "bat": 6283,
      "PIO": 6284,
      "Ġcalc": 6285,
      "pto": 6286,
      "xcd": 6287,
      "inator": 6288,
      "allclose": 6289,
      "Ġcandidate": 6290,
      "çĽ": 6291,
      "Ġkeyword": 6292,
      "ĠPAR": 6293,
      "ãħ": 6294,
      "âĢį": 6295,
      "å°": 6296,
      "utoff": 6297,
      "tegration": 6298,
      "embeddings": 6299,
      "variance": 6300,
      "rozen": 6301,
      "cert": 6302,
      "Ġbad": 6303,
      "ium": 6304,
      "orary": 6305,
      "Ġtransaction": 6306,
      "ymbols": 6307,
      "æķ°æį®": 6308,
      "distribution": 6309,
      "Ġreserved": 6310,
      "ior": 6311,
      "Ġsens": 6312,
      "xaa": 6313,
      "mol": 6314,
      "Ġoutfile": 6315,
      "pher": 6316,
      "Ġcheckpoint": 6317,
      "deploy": 6318,
      "TOKEN": 6319,
      "transport": 6320,
      "Fin": 6321,
      "vertices": 6322,
      "Role": 6323,
      "Ġroom": 6324,
      "ĠProcess": 6325,
      "Builder": 6326,
      "activity": 6327,
      "ĠNet": 6328,
      "xda": 6329,
      "DD": 6330,
      "Ġrelease": 6331,
      "********************************": 6332,
      "REQU": 6333,
      "Ġminimum": 6334,
      "timer": 6335,
      "Ġvocab": 6336,
      "strategy": 6337,
      "ĠÐ¿": 6338,
      "combin": 6339,
      "quality": 6340,
      "Formatter": 6341,
      "Attr": 6342,
      "Ġanother": 6343,
      "softmax": 6344,
      "Ġ\"\")": 6345,
      "quote": 6346,
      "tables": 6347,
      "Generator": 6348,
      "cells": 6349,
      "Ġdiscord": 6350,
      "cir": 6351,
      "Initial": 6352,
      "Ġ45": 6353,
      "Ġturn": 6354,
      "devices": 6355,
      "utation": 6356,
      "')]": 6357,
      "tenant": 6358,
      "wiki": 6359,
      "css": 6360,
      "Ġfi": 6361,
      "endar": 6362,
      "}_": 6363,
      "CASCADE": 6364,
      "2944819": 6365,
      "Ġdatasets": 6366,
      "03252": 6367,
      "4342944819": 6368,
      "434294481903252": 6369,
      "600": 6370,
      "Ġcer": 6371,
      "appro": 6372,
      "RGB": 6373,
      "setting": 6374,
      "ĠSp": 6375,
      "cular": 6376,
      "Ġaccept": 6377,
      "guild": 6378,
      "Ġctypes": 6379,
      "DateTimeField": 6380,
      "gers": 6381,
      "Ġkind": 6382,
      "å¯": 6383,
      "ulk": 6384,
      "Ġpoly": 6385,
      "Ġsol": 6386,
      "scheduler": 6387,
      ":\"": 6388,
      "repeat": 6389,
      "ĊĠĠĠĠĠĠĠĠĠĠĠĠĠĠĠĠĠĠĠĠĠĠĠĠĠĠĠĠĠĠĠĠĠĠĠĠĠĠĠĠĠĠĠĠ": 6390,
      "multip": 6391,
      "Ġstderr": 6392,
      "lastic": 6393,
      "XXX": 6394,
      "Reader": 6395,
      "gray": 6396,
      "reason": 6397,
      "Uni": 6398,
      "transfer": 6399,
      "ĠPoint": 6400,
      "Ġalign": 6401,
      "++++": 6402,
      "'re": 6403,
      "istent": 6404,
      "bre": 6405,
      "Ġxy": 6406,
      "ĠValue": 6407,
      "Ġimplemented": 6408,
      "choices": 6409,
      "ibility": 6410,
      "ĠDjango": 6411,
      "Ġpartial": 6412,
      "ĠWhen": 6413,
      "LR": 6414,
      "tot": 6415,
      "MB": 6416,
      "Sele": 6417,
      "Script": 6418,
      "||": 6419,
      "Ġresources": 6420,
      "Part": 6421,
      "rome": 6422,
      "xdc": 6423,
      "Cell": 6424,
      "dictor": 6425,
      "Ġrepresentation": 6426,
      "Ġpublic": 6427,
      "dde": 6428,
      "DEF": 6429,
      "ĠInt": 6430,
      "flux": 6431,
      "candidate": 6432,
      "Ġinterpol": 6433,
      "Ġarti": 6434,
      "čĊĉĉĉ": 6435,
      "Ã³": 6436,
      "mediate": 6437,
      "lapsed": 6438,
      "Ġremoved": 6439,
      "ips": 6440,
      "runner": 6441,
      "Ġcomponents": 6442,
      "xee": 6443,
      "article": 6444,
      "onal": 6445,
      "Ġstarting": 6446,
      "ilt": 6447,
      "Cho": 6448,
      "Ġpositive": 6449,
      "Ġtopic": 6450,
      "roles": 6451,
      "Ġsess": 6452,
      ">.": 6453,
      "voke": 6454,
      "related": 6455,
      "ĠState": 6456,
      "Ġè": 6457,
      "det": 6458,
      "uit": 6459,
      "gene": 6460,
      "complex": 6461,
      "Ġchoice": 6462,
      "Ġdump": 6463,
      "scriptor": 6464,
      "members": 6465,
      "CF": 6466,
      "nr": 6467,
      "Ġrecords": 6468,
      "cov": 6469,
      ">=": 6470,
      "Ġleast": 6471,
      "xba": 6472,
      "Entity": 6473,
      "Web": 6474,
      "IF": 6475,
      "SU": 6476,
      "xab": 6477,
      "tage": 6478,
      "bine": 6479,
      "('.": 6480,
      "dients": 6481,
      "ssl": 6482,
      "Configuration": 6483,
      "Ġincluded": 6484,
      "patterns": 6485,
      "ssh": 6486,
      "operator": 6487,
      "deredDict": 6488,
      "square": 6489,
      "xdd": 6490,
      "Ġappend": 6491,
      "Ġlight": 6492,
      "Ġstatic": 6493,
      "Dialog": 6494,
      "Ġ[])": 6495,
      "Agent": 6496,
      "placeholder": 6497,
      "UNT": 6498,
      "Ġframes": 6499,
      "Ġensure": 6500,
      "Ġ*=": 6501,
      "Dep": 6502,
      "WE": 6503,
      "surface": 6504,
      "ĠFe": 6505,
      "tl": 6506,
      "allen": 6507,
      "ĠPlot": 6508,
      "Ġlater": 6509,
      "xbb": 6510,
      "Ġdefinition": 6511,
      "OLDER": 6512,
      "Gen": 6513,
      "alan": 6514,
      "lec": 6515,
      "Ġplease": 6516,
      "Ġ21": 6517,
      "Ġpublish": 6518,
      "ĠIO": 6519,
      "matches": 6520,
      "Ġ[('": 6521,
      "Ġbook": 6522,
      "Ã¤": 6523,
      "etadata": 6524,
      "servations": 6525,
      "æĪĲ": 6526,
      "Ġpt": 6527,
      "retry": 6528,
      "ĠDate": 6529,
      "ĠDec": 6530,
      "00000": 6531,
      "Ġum": 6532,
      "Ġreader": 6533,
      "Example": 6534,
      "calls": 6535,
      "normalize": 6536,
      "Ġ23": 6537,
      "Ġvm": 6538,
      "Ġdot": 6539,
      "pie": 6540,
      "catalog": 6541,
      "120": 6542,
      "named": 6543,
      "Ġuses": 6544,
      "Ġboxes": 6545,
      "ĠSpeci": 6546,
      "lities": 6547,
      "ĠClo": 6548,
      "circ": 6549,
      "Storage": 6550,
      "Use": 6551,
      "Ġev": 6552,
      "spaces": 6553,
      "annotation": 6554,
      "support": 6555,
      "ç½": 6556,
      "Title": 6557,
      "trip": 6558,
      "aster": 6559,
      "dium": 6560,
      "kl": 6561,
      "tempt": 6562,
      "Ġcrop": 6563,
      "ified": 6564,
      "Ġwere": 6565,
      "health": 6566,
      "conver": 6567,
      "xea": 6568,
      "PT": 6569,
      "redirect": 6570,
      "Ġ80": 6571,
      "ĠPri": 6572,
      "Ġ{})": 6573,
      "ĠSkin": 6574,
      "Controller": 6575,
      "xcc": 6576,
      "ĠResource": 6577,
      "Ġuntil": 6578,
      "unicode": 6579,
      "Ġfreq": 6580,
      "Tool": 6581,
      "EC": 6582,
      "Ġshuffle": 6583,
      "dummy": 6584,
      "digit": 6585,
      "ĠTone": 6586,
      "parti": 6587,
      "aggreg": 6588,
      "čĊĠĠĠĠĠĠĠĠĠĠĠĠĠĠĠĠĠĠĠĠĠĠĠĠĠĠĠ": 6589,
      "Ġiteration": 6590,
      "TF": 6591,
      "Random": 6592,
      "esc": 6593,
      "Ġcoords": 6594,
      "plugins": 6595,
      "LS": 6596,
      "derer": 6597,
      "ypes": 6598,
      "Local": 6599,
      "Wh": 6600,
      "laces": 6601,
      "moid": 6602,
      "Ġprecision": 6603,
      "Ġprotocol": 6604,
      "åĮ": 6605,
      "æŀ": 6606,
      "Rate": 6607,
      "att": 6608,
      "Ġcomm": 6609,
      "ĠNew": 6610,
      "deletion": 6611,
      "migrations": 6612,
      "Ġchildren": 6613,
      "RI": 6614,
      "TextField": 6615,
      "Ġcopyright": 6616,
      "pic": 6617,
      "wave": 6618,
      "íķ": 6619,
      "digest": 6620,
      "thresh": 6621,
      "cessary": 6622,
      "ationError": 6623,
      "Ax": 6624,
      "Cache": 6625,
      "Ġvisual": 6626,
      "ama": 6627,
      "Ġcols": 6628,
      "precision": 6629,
      "Encoder": 6630,
      "RECT": 6631,
      "LY": 6632,
      "LIST": 6633,
      "Ġ2021": 6634,
      "Ġserialize": 6635,
      "walk": 6636,
      "Required": 6637,
      "VALID": 6638,
      "sampling": 6639,
      "Values": 6640,
      "ĠMap": 6641,
      "Menu": 6642,
      "Ġretry": 6643,
      "tid": 6644,
      "Pe": 6645,
      "Please": 6646,
      "zon": 6647,
      "Ġinner": 6648,
      "ĠMax": 6649,
      "helpers": 6650,
      "Global": 6651,
      "Ġimplementation": 6652,
      "configure": 6653,
      "IGN": 6654,
      "Ġ'/'": 6655,
      "Ġpers": 6656,
      "Ġmatching": 6657,
      "small": 6658,
      "ĠFL": 6659,
      "Ġsec": 6660,
      "Ġinternal": 6661,
      "ric": 6662,
      "ĠStat": 6663,
      "Print": 6664,
      "Ġinplace": 6665,
      "cted": 6666,
      "Ġconstant": 6667,
      "Current": 6668,
      "istered": 6669,
      "\\'": 6670,
      "Ġnx": 6671,
      "Ġratio": 6672,
      "actual": 6673,
      "Windows": 6674,
      "[[": 6675,
      "ĠOnly": 6676,
      "handlers": 6677,
      "specs": 6678,
      "ä¸į": 6679,
      "ĠCompute": 6680,
      "vely": 6681,
      "ĠStart": 6682,
      "Ġ(%": 6683,
      "many": 6684,
      "havior": 6685,
      "dense": 6686,
      "Ġtw": 6687,
      "Ġmodified": 6688,
      "arison": 6689,
      "Ġque": 6690,
      "Ġ22": 6691,
      "npy": 6692,
      "éĹ": 6693,
      "allback": 6694,
      "Ġtimedelta": 6695,
      "jectory": 6696,
      "Ġboolean": 6697,
      "wx": 6698,
      "\"]),": 6699,
      "ĠTH": 6700,
      "æĸĩ": 6701,
      "TC": 6702,
      "reat": 6703,
      "retri": 6704,
      "amb": 6705,
      "Last": 6706,
      "bos": 6707,
      "Ġtransforms": 6708,
      "Ġmetavar": 6709,
      "bf": 6710,
      "Embed": 6711,
      "uv": 6712,
      "permissions": 6713,
      "Ġevaluate": 6714,
      "BE": 6715,
      "butions": 6716,
      "good": 6717,
      "Ġitertools": 6718,
      "Begin": 6719,
      "disable": 6720,
      "iece": 6721,
      "cube": 6722,
      "ctools": 6723,
      "Ġanalysis": 6724,
      "535": 6725,
      "swig": 6726,
      "Results": 6727,
      "crypt": 6728,
      "Ñĩ": 6729,
      "grees": 6730,
      "peak": 6731,
      "dates": 6732,
      "Ġknow": 6733,
      "Ġusage": 6734,
      "Ġoccur": 6735,
      "Ġvo": 6736,
      "Ġrelation": 6737,
      "IE": 6738,
      "rotation": 6739,
      "Ġblob": 6740,
      "visible": 6741,
      "ini": 6742,
      "ĠFI": 6743,
      "Ġpositions": 6744,
      "override": 6745,
      "MAG": 6746,
      "ORY": 6747,
      "hold": 6748,
      "Database": 6749,
      "Enter": 6750,
      "ni": 6751,
      "vertex": 6752,
      "Ġblocks": 6753,
      "bc": 6754,
      "Ġhistory": 6755,
      "partial": 6756,
      "Container": 6757,
      "(\"[": 6758,
      "aging": 6759,
      "ĠImportError": 6760,
      "coeff": 6761,
      "assertIn": 6762,
      "Ġscan": 6763,
      "Speci": 6764,
      "Ġfrequency": 6765,
      "Ġdivision": 6766,
      "Ġdefaultdict": 6767,
      "Ġsix": 6768,
      "plus": 6769,
      "æĹ¶": 6770,
      "Flow": 6771,
      "clusters": 6772,
      "Ġlang": 6773,
      "news": 6774,
      "unknown": 6775,
      "velop": 6776,
      "eng": 6777,
      "Ġregex": 6778,
      "ĠOption": 6779,
      "Plugin": 6780,
      "åĢ": 6781,
      "ORE": 6782,
      "Programming": 6783,
      "Ġexclude": 6784,
      "classifier": 6785,
      "present": 6786,
      "Ġmanager": 6787,
      "numbers": 6788,
      "browser": 6789,
      "yml": 6790,
      "1024": 6791,
      "Ġpairs": 6792,
      "Ġba": 6793,
      "ĠProject": 6794,
      "agicMock": 6795,
      "attention": 6796,
      "course": 6797,
      "Inst": 6798,
      "Warning": 6799,
      "cover": 6800,
      "console": 6801,
      "ĠTrain": 6802,
      "templates": 6803,
      "separ": 6804,
      "moves": 6805,
      "diffe": 6806,
      "ota": 6807,
      "using": 6808,
      "special": 6809,
      "roadcast": 6810,
      "asc": 6811,
      "Ġborder": 6812,
      "è¡Į": 6813,
      "Ġ2019": 6814,
      "omial": 6815,
      "ĊĠĠĠĠĠĠĠĠĠĠĠĠĊĠĠĠĠĠĠĠ": 6816,
      "Ġserializers": 6817,
      "definition": 6818,
      "vered": 6819,
      "Protocol": 6820,
      "ä¸Ń": 6821,
      "hyper": 6822,
      "'\"": 6823,
      "Ġrect": 6824,
      "recv": 6825,
      "eg": 6826,
      "}]": 6827,
      "configs": 6828,
      "ĊĠĠĠĠĠĠĠĠĠĠĠĠĠĠĠĠĠĠĠĠĠĠĠĠĠĠĠĠĠĠĠĠĠĠĠĠĠĠĠĠĠĠĠĠĠĠ": 6829,
      "ategorical": 6830,
      "oom": 6831,
      "čĊĠĠĠĠĠĠ": 6832,
      "Font": 6833,
      "rename": 6834,
      "Rest": 6835,
      "unsqueeze": 6836,
      "ĠMIT": 6837,
      "Instruction": 6838,
      "yes": 6839,
      "Ġeven": 6840,
      "parsed": 6841,
      "Writer": 6842,
      "raft": 6843,
      "[:]": 6844,
      "OF": 6845,
      "Ġ300": 6846,
      "beam": 6847,
      "Ġschedule": 6848,
      "Ġnegative": 6849,
      "lies": 6850,
      "ions": 6851,
      "Ġdeleted": 6852,
      "Ġhome": 6853,
      "TIM": 6854,
      "strings": 6855,
      "Folder": 6856,
      "ĠCustom": 6857,
      "Report": 6858,
      "ĊĠĠĠĠĊĠĠĠĠĊĠĠĠ": 6859,
      "ivo": 6860,
      "fx": 6861,
      "AI": 6862,
      "clone": 6863,
      "ĠRemove": 6864,
      "lu": 6865,
      "Category": 6866,
      "verb": 6867,
      "elem": 6868,
      "Ġsur": 6869,
      "registry": 6870,
      "ĊĠĠĠĠĠĠĠĠĠĠĠĠĠĠĠĠĠĠĠĠĠĠĠĠĠĠĠĠĠĠĠĠĠĠĠĠĠĠĠĠĠĠĠĠĠ": 6871,
      "BC": 6872,
      "rr": 6873,
      "Ġyet": 6874,
      "absolute": 6875,
      "phys": 6876,
      "LOCK": 6877,
      "Ċĉĉĉĉĉĉĉĉ": 6878,
      "Connect": 6879,
      "Ġtraceback": 6880,
      "DIS": 6881,
      "Ð²": 6882,
      "Ġdecor": 6883,
      "Ġgood": 6884,
      "ä»¶": 6885,
      "ulated": 6886,
      "Ġprovider": 6887,
      "subscription": 6888,
      "ah": 6889,
      "detach": 6890,
      "ply": 6891,
      "evaluate": 6892,
      "STRING": 6893,
      "problem": 6894,
      "currency": 6895,
      "Ġwrap": 6896,
      "expect": 6897,
      "čĊĠĠĠĠĠĠĠĠčĊĠĠĠĠĠĠĠ": 6898,
      "allet": 6899,
      "('./": 6900,
      "800": 6901,
      "ilarity": 6902,
      "SM": 6903,
      "Ġig": 6904,
      "sender": 6905,
      "Ġworking": 6906,
      "omentum": 6907,
      "Bot": 6908,
      "Ġbasic": 6909,
      "ĠGraph": 6910,
      "ĠLabel": 6911,
      "æĿ": 6912,
      "IZ": 6913,
      "Ġmaterial": 6914,
      "nail": 6915,
      "Ġlst": 6916,
      "Classifier": 6917,
      "Ġdecoder": 6918,
      "Ġ90": 6919,
      "Geometry": 6920,
      "ĠĠĠĠĠĠĠĠĠĠĠĠĠĠĠĠĠĠĠĠ": 6921,
      "AX": 6922,
      "Ġfore": 6923,
      "Space": 6924,
      "WR": 6925,
      "ĠCur": 6926,
      "Ġ2018": 6927,
      "ĠMulti": 6928,
      "HEAD": 6929,
      "ĠMO": 6930,
      "Ġcompare": 6931,
      "Ġelem": 6932,
      "Ġsnapshot": 6933,
      "lm": 6934,
      "Ġalong": 6935,
      "atient": 6936,
      "generic": 6937,
      "ĠDefaults": 6938,
      "SL": 6939,
      "ReLU": 6940,
      "backward": 6941,
      "Ġprior": 6942,
      "Write": 6943,
      "ony": 6944,
      "ĠRel": 6945,
      "ĠSequence": 6946,
      "front": 6947,
      "Ġgot": 6948,
      "ĠVer": 6949,
      "åħ¥": 6950,
      "ands": 6951,
      "subnet": 6952,
      "Directory": 6953,
      "Ġcases": 6954,
      "Ġbig": 6955,
      "Ġsep": 6956,
      "versions": 6957,
      "destination": 6958,
      "Keys": 6959,
      "ĠService": 6960,
      "sparse": 6961,
      "uses": 6962,
      "mitted": 6963,
      "workflow": 6964,
      "Ġsuffix": 6965,
      "sensor": 6966,
      "Child": 6967,
      "Ġ%.": 6968,
      "Scale": 6969,
      "Ġns": 6970,
      "orth": 6971,
      "connected": 6972,
      "Ġrotation": 6973,
      "ĠToken": 6974,
      "fmt": 6975,
      "################################################": 6976,
      "Ġspecial": 6977,
      "subplots": 6978,
      ",\\": 6979,
      "{}/": 6980,
      "ana": 6981,
      "quick": 6982,
      "review": 6983,
      "categories": 6984,
      "Ġrestri": 6985,
      "ĊĠĠĠĠĠĠĠĠĠĠĠĠĠĠĠĠĊĠĠĠĠĠĠĠĠĠĠĠĠĠĠĠ": 6986,
      "Stop": 6987,
      "ĠFlask": 6988,
      ">')": 6989,
      "Lim": 6990,
      "Ġ\"#": 6991,
      "Ġmac": 6992,
      "lane": 6993,
      "Ġgradient": 6994,
      "uggest": 6995,
      "Ġoverride": 6996,
      "Cor": 6997,
      "Ġ------------------------------------------------------------------------": 6998,
      "Ori": 6999,
      "arest": 7000,
      "ĠInvalid": 7001,
      "Ġproxy": 7002,
      "192": 7003,
      "half": 7004,
      "backup": 7005,
      "udy": 7006,
      "Unknown": 7007,
      "Ġmenu": 7008,
      "Shape": 7009,
      "è¡¨": 7010,
      "2000": 7011,
      "Ġcredentials": 7012,
      "å¾": 7013,
      "Ġcla": 7014,
      "Ġmid": 7015,
      "('[": 7016,
      "2021": 7017,
      "aux": 7018,
      "Ġexecution": 7019,
      "Ġcurrently": 7020,
      "Ġ--------------------------------": 7021,
      "()}": 7022,
      "losses": 7023,
      "II": 7024,
      "major": 7025,
      "Properties": 7026,
      "...')": 7027,
      "scheme": 7028,
      "Only": 7029,
      "dom": 7030,
      "LLLL": 7031,
      "wers": 7032,
      "čĊĠĠ": 7033,
      "URCE": 7034,
      "Ġautomatic": 7035,
      "Ġ'\"": 7036,
      "utdown": 7037,
      "filtered": 7038,
      "allowed": 7039,
      "ĠCode": 7040,
      "squ": 7041,
      "Ġphi": 7042,
      "destroy": 7043,
      "ough": 7044,
      "Ġpercent": 7045,
      "Ġhyper": 7046,
      "rush": 7047,
      "Wrapper": 7048,
      "Cre": 7049,
      "aged": 7050,
      "ov": 7051,
      "inp": 7052,
      "Ġdx": 7053,
      "archive": 7054,
      "Left": 7055,
      "Ġreply": 7056,
      ":],": 7057,
      "Email": 7058,
      "ĠTable": 7059,
      "CODE": 7060,
      "umbnail": 7061,
      "Ġhelper": 7062,
      "levant": 7063,
      "ĠXXXX": 7064,
      "Ġfs": 7065,
      "æľī": 7066,
      "lecule": 7067,
      "Ġvertex": 7068,
      "Ġattrs": 7069,
      "START": 7070,
      "company": 7071,
      "Ġless": 7072,
      "Ġsets": 7073,
      "Ġpur": 7074,
      "emon": 7075,
      "PIPE": 7076,
      "Ġrules": 7077,
      "vehicle": 7078,
      "coordinates": 7079,
      "iles": 7080,
      "fri": 7081,
      "Ġ({": 7082,
      "readlines": 7083,
      "Coord": 7084,
      "BR": 7085,
      "solution": 7086,
      "frac": 7087,
      "incip": 7088,
      "roker": 7089,
      "ĠQuery": 7090,
      "Ġpara": 7091,
      "exe": 7092,
      "UND": 7093,
      "Product": 7094,
      "cording": 7095,
      "pkl": 7096,
      "compare": 7097,
      "lue": 7098,
      "cipi": 7099,
      "nums": 7100,
      "ij": 7101,
      "watch": 7102,
      "ç±": 7103,
      "without": 7104,
      "argmax": 7105,
      "isdir": 7106,
      "DAT": 7107,
      "arp": 7108,
      "logical": 7109,
      "Ġworker": 7110,
      "ÐµÐ½": 7111,
      "Ġfigure": 7112,
      "threads": 7113,
      "RR": 7114,
      "LOC": 7115,
      "previous": 7116,
      "âķĲâķĲ": 7117,
      "deepcopy": 7118,
      "Ġenabled": 7119,
      "lb": 7120,
      "(\"\")": 7121,
      "mal": 7122,
      "Ġprocessed": 7123,
      "Ġzone": 7124,
      "Ġlookup": 7125,
      "zed": 7126,
      "Ġdiag": 7127,
      "validator": 7128,
      "runtime": 7129,
      "LOAD": 7130,
      "Ġcounts": 7131,
      "ology": 7132,
      "adv": 7133,
      "ĠBuild": 7134,
      "æİ": 7135,
      "DA": 7136,
      "Dim": 7137,
      "frequency": 7138,
      "sal": 7139,
      "reater": 7140,
      "Ġpredicted": 7141,
      "Ġetc": 7142,
      "Parse": 7143,
      "ĠCallable": 7144,
      "Users": 7145,
      "Ġembedding": 7146,
      "Ġcontact": 7147,
      "180": 7148,
      "preds": 7149,
      "each": 7150,
      "Env": 7151,
      "cial": 7152,
      "Ids": 7153,
      "Ġct": 7154,
      "Ġfuture": 7155,
      "Ġtemperature": 7156,
      ";\\": 7157,
      "Ġpin": 7158,
      "ĠPost": 7159,
      "()).": 7160,
      "vertical": 7161,
      "shuffle": 7162,
      "FC": 7163,
      "STATUS": 7164,
      "Ġred": 7165,
      "Ġdropout": 7166,
      "stride": 7167,
      "radi": 7168,
      "adr": 7169,
      "CLUD": 7170,
      "rectories": 7171,
      "Ġgene": 7172,
      "Created": 7173,
      "parallel": 7174,
      "marker": 7175,
      "Display": 7176,
      "SR": 7177,
      "ORK": 7178,
      "ÑģÑĤ": 7179,
      "Ġalias": 7180,
      "168": 7181,
      "Ġprocessing": 7182,
      "Ġ28": 7183,
      "Ġci": 7184,
      "Ġavoid": 7185,
      "Ġproc": 7186,
      "Ġanaly": 7187,
      "permission": 7188,
      "åŃĹ": 7189,
      "Ġmd": 7190,
      "Ġconstruct": 7191,
      "ĠGe": 7192,
      "negative": 7193,
      "flip": 7194,
      "ĠInc": 7195,
      "attrib": 7196,
      "Ġaug": 7197,
      "Ġequ": 7198,
      "Ġexceptions": 7199,
      "Modi": 7200,
      "Ġaggreg": 7201,
      "cases": 7202,
      "onom": 7203,
      "requirements": 7204,
      "ĠDO": 7205,
      "mitive": 7206,
      "cursive": 7207,
      "edu": 7208,
      "ĠGenerate": 7209,
      "Ġtol": 7210,
      "VAR": 7211,
      "Ġfactory": 7212,
      "QP": 7213,
      "Ġdelay": 7214,
      "Ġdays": 7215,
      "crease": 7216,
      "Day": 7217,
      "dk": 7218,
      "pdb": 7219,
      "getitem": 7220,
      "rho": 7221,
      "ICT": 7222,
      "horizontal": 7223,
      "Ġaudio": 7224,
      "signature": 7225,
      "Helper": 7226,
      "ĠĠĠĠĊĠĠĠ": 7227,
      "spl": 7228,
      "lengths": 7229,
      "Ċĉĉĉĉĉĉ": 7230,
      "SY": 7231,
      "rstrip": 7232,
      "cpp": 7233,
      "åĨ": 7234,
      "urations": 7235,
      "heet": 7236,
      "ada": 7237,
      "ĠTEST": 7238,
      "111": 7239,
      "Defin": 7240,
      "rase": 7241,
      "temperature": 7242,
      "material": 7243,
      "Ġfeat": 7244,
      "Ġwritten": 7245,
      "une": 7246,
      "izing": 7247,
      "emory": 7248,
      "regular": 7249,
      "Ġjoint": 7250,
      "ĠUSE": 7251,
      "qt": 7252,
      "Password": 7253,
      "lyph": 7254,
      "Ġč": 7255,
      "indent": 7256,
      "Ġpartition": 7257,
      "machine": 7258,
      "Ġproto": 7259,
      "Ġcountry": 7260,
      "tives": 7261,
      "ĠAttributeError": 7262,
      "CLUDING": 7263,
      "ĠGenerated": 7264,
      "scape": 7265,
      "ino": 7266,
      "Ġshift": 7267,
      "docker": 7268,
      "Ġcomplex": 7269,
      "BB": 7270,
      "ongo": 7271,
      "fications": 7272,
      "ĠSH": 7273,
      "ULAR": 7274,
      "Head": 7275,
      "WI": 7276,
      "floor": 7277,
      "tb": 7278,
      "Ġir": 7279,
      "ĠCan": 7280,
      "Store": 7281,
      ":{": 7282,
      "=\"\",": 7283,
      "ados": 7284,
      "CESS": 7285,
      "tan": 7286,
      "ordered": 7287,
      "ĠId": 7288,
      "quanti": 7289,
      "Ġsensor": 7290,
      "Ġ=================================================================": 7291,
      "Ġsq": 7292,
      "Ġbs": 7293,
      "strap": 7294,
      "truth": 7295,
      "workspace": 7296,
      "Operation": 7297,
      "curve": 7298,
      "Ġrepr": 7299,
      "Ġtempfile": 7300,
      "Ġpkg": 7301,
      "ä¹": 7302,
      "Ġown": 7303,
      "fire": 7304,
      "Ġbg": 7305,
      "Ġenergy": 7306,
      "Sw": 7307,
      "cum": 7308,
      "prompt": 7309,
      "fits": 7310,
      "relative": 7311,
      "circle": 7312,
      ":`~": 7313,
      "vl": 7314,
      "Ġmedia": 7315,
      "ĠDataFrame": 7316,
      "rotate": 7317,
      "Ġmag": 7318,
      "å®ļ": 7319,
      "ĊĊĠĠĠĠĠĠĠĠĠĠĠĠĠĠĠĠĠĠĠĠĠĠĠ": 7320,
      "moving": 7321,
      "Ġnums": 7322,
      "hours": 7323,
      "à¸": 7324,
      "Ġdesired": 7325,
      "met": 7326,
      "ĠOUT": 7327,
      "ĠCONTR": 7328,
      "erance": 7329,
      "Ġ1024": 7330,
      "))]": 7331,
      "clar": 7332,
      "mouse": 7333,
      "CV": 7334,
      "vc": 7335,
      "ĠLIMIT": 7336,
      "Ġarrays": 7337,
      "Ġsignature": 7338,
      "Could": 7339,
      "Ġswitch": 7340,
      "ç±»": 7341,
      "ĠAb": 7342,
      "Ġrequested": 7343,
      "Ġinside": 7344,
      "illa": 7345,
      "keyword": 7346,
      "observation": 7347,
      "cancel": 7348,
      "></": 7349,
      "Ġmachine": 7350,
      "dispatch": 7351,
      "see": 7352,
      "standard": 7353,
      "Ġicon": 7354,
      "Ġcmap": 7355,
      "Ġexpr": 7356,
      "warnings": 7357,
      "Ġsecret": 7358,
      "Ġâ": 7359,
      "readline": 7360,
      "ĠRandom": 7361,
      "gradient": 7362,
      "CLASS": 7363,
      "Ġdecimal": 7364,
      "rv": 7365,
      "tau": 7366,
      "ĠWork": 7367,
      "Ġgoal": 7368,
      "Gra": 7369,
      "Ġcut": 7370,
      "Ġclip": 7371,
      "lick": 7372,
      "Ġmis": 7373,
      "cade": 7374,
      "Ġlinks": 7375,
      "inc": 7376,
      "Ġsqlalchemy": 7377,
      "Ter": 7378,
      "just": 7379,
      "Ġdecode": 7380,
      "pur": 7381,
      "Stack": 7382,
      "Ġthose": 7383,
      "median": 7384,
      "Region": 7385,
      "calculate": 7386,
      "velopment": 7387,
      "Ġfiltered": 7388,
      "Sequential": 7389,
      "Callback": 7390,
      "wa": 7391,
      "Player": 7392,
      "boolean": 7393,
      "findall": 7394,
      "Ġcallable": 7395,
      "past": 7396,
      "demo": 7397,
      "coef": 7398,
      "POINT": 7399,
      "bd": 7400,
      "bute": 7401,
      "Ġvisit": 7402,
      "Ġbounds": 7403,
      "ĠDataset": 7404,
      "ĠPublic": 7405,
      "tice": 7406,
      "Ġvs": 7407,
      "ĠRaises": 7408,
      "Vide": 7409,
      "Bytes": 7410,
      "Ġattention": 7411,
      "pipe": 7412,
      "TypeError": 7413,
      "prepare": 7414,
      "Ġincluding": 7415,
      ":')": 7416,
      "Ġwell": 7417,
      "transforms": 7418,
      "Ġcos": 7419,
      "lare": 7420,
      "saved": 7421,
      "visor": 7422,
      "iterations": 7423,
      "ÃŃ": 7424,
      "Ġlogs": 7425,
      "notify": 7426,
      "getenv": 7427,
      "ĠPO": 7428,
      "Msg": 7429,
      "ĠWH": 7430,
      "arc": 7431,
      "ducer": 7432,
      "ĊĉĉĊĉ": 7433,
      "ĠConvert": 7434,
      "masks": 7435,
      "bert": 7436,
      "8617": 7437,
      "wav": 7438,
      "annotations": 7439,
      "Ġexamples": 7440,
      "Ġsym": 7441,
      "ĠPlease": 7442,
      "First": 7443,
      "lect": 7444,
      "subset": 7445,
      "ceed": 7446,
      "ĠSave": 7447,
      "ĠBE": 7448,
      "Ġworks": 7449,
      "AF": 7450,
      "Migration": 7451,
      "stit": 7452,
      "Sched": 7453,
      "ĠFind": 7454,
      "yy": 7455,
      "Details": 7456,
      "ĠDA": 7457,
      "Ġscene": 7458,
      "Ġrec": 7459,
      "iness": 7460,
      "aloader": 7461,
      "TEXT": 7462,
      "ĊĠĠĠĠĠĠĠĠĠĠĠĠĠĠĠĠĠĠĠĠĠĠĠĠĠĠĠĠĠĠĠĠĠĠĠĠĠĠĠĠĠĠĠĠĠĠĠĠĠĠĠ": 7463,
      "nf": 7464,
      "tify": 7465,
      "Param": 7466,
      "Stats": 7467,
      "velocity": 7468,
      "today": 7469,
      "Ġ####": 7470,
      "(\",": 7471,
      "lica": 7472,
      "Ġevaluation": 7473,
      "timedelta": 7474,
      "Ġprivate": 7475,
      "bp": 7476,
      "Ġepochs": 7477,
      "LD": 7478,
      "æŃ": 7479,
      "Ġfunctools": 7480,
      "border": 7481,
      "gap": 7482,
      "Ġexternal": 7483,
      "vectors": 7484,
      "Alter": 7485,
      "Ġqueryset": 7486,
      "dataframe": 7487,
      "ASK": 7488,
      "meth": 7489,
      "Ġfilepath": 7490,
      "priority": 7491,
      "generated": 7492,
      "Ġselection": 7493,
      "Ġbuilder": 7494,
      "ĠTra": 7495,
      "pix": 7496,
      "ina": 7497,
      "fft": 7498,
      "when": 7499,
      "uf": 7500,
      "lider": 7501,
      "COMM": 7502,
      "Ġadjust": 7503,
      "Abstract": 7504,
      "[...,": 7505,
      "uator": 7506,
      "Ġdp": 7507,
      "rices": 7508,
      "Ġuid": 7509,
      "ĠIMP": 7510,
      "ĠMin": 7511,
      "Transaction": 7512,
      "Ġrepresenting": 7513,
      "ĠSimple": 7514,
      "Ġspa": 7515,
      "([])": 7516,
      "Ġshared": 7517,
      "=[],": 7518,
      "Mask": 7519,
      "ente": 7520,
      "icrosoft": 7521,
      "asy": 7522,
      "Ġcent": 7523,
      "Ġcontroller": 7524,
      "Ġstrategy": 7525,
      "ĠDEFAULT": 7526,
      "Ð¼": 7527,
      "Ġpixels": 7528,
      "Ġproper": 7529,
      "Ġonce": 7530,
      "MainWindow": 7531,
      "bone": 7532,
      "href": 7533,
      "stim": 7534,
      "lig": 7535,
      "Game": 7536,
      "IMAGE": 7537,
      "bon": 7538,
      "ierarch": 7539,
      "Buffer": 7540,
      "Ġsche": 7541,
      "Ġregular": 7542,
      "added": 7543,
      "getattr": 7544,
      "Eval": 7545,
      "gu": 7546,
      "Ġlogits": 7547,
      "Ġnecessary": 7548,
      "authentic": 7549,
      "Ġgit": 7550,
      "Ġxrange": 7551,
      "Execution": 7552,
      "Utils": 7553,
      "maximum": 7554,
      "webs": 7555,
      "ĠOrderedDict": 7556,
      "Mapping": 7557,
      "Ġ/=": 7558,
      "bri": 7559,
      "deg": 7560,
      "=',": 7561,
      "{}.": 7562,
      "POSE": 7563,
      "adow": 7564,
      "Ġ[{": 7565,
      "Ġ{:": 7566,
      "STATE": 7567,
      "Ġaccording": 7568,
      "_'": 7569,
      "prod": 7570,
      "builtin": 7571,
      "LETE": 7572,
      "Ġannotation": 7573,
      "visual": 7574,
      "reet": 7575,
      "INGS": 7576,
      "guid": 7577,
      "quantity": 7578,
      "Ġrobot": 7579,
      "Draw": 7580,
      "rive": 7581,
      "extensions": 7582,
      "cryption": 7583,
      "digits": 7584,
      "Ġdetermin": 7585,
      "Ġcoordinate": 7586,
      "ĠStruct": 7587,
      "existing": 7588,
      "Ġdy": 7589,
      "ĠArguments": 7590,
      "escape": 7591,
      "-{": 7592,
      "CD": 7593,
      "Ġreduce": 7594,
      "Ġden": 7595,
      "tor": 7596,
      "comments": 7597,
      "Ġsoup": 7598,
      "APP": 7599,
      "Engine": 7600,
      "917": 7601,
      "Ġcr": 7602,
      "ĠMain": 7603,
      "Ġ\"$": 7604,
      "Ġrgb": 7605,
      "Descript": 7606,
      "Bound": 7607,
      "clus": 7608,
      "Ġfd": 7609,
      "ills": 7610,
      "sci": 7611,
      "ĠPrint": 7612,
      "Ġjsonify": 7613,
      "Ġes": 7614,
      "Ġlatest": 7615,
      "Ġrho": 7616,
      "(\"\"\"": 7617,
      "PES": 7618,
      "echo": 7619,
      "unity": 7620,
      "Ġdeal": 7621,
      "pace": 7622,
      "Video": 7623,
      "Simple": 7624,
      "atory": 7625,
      "Ġ{:.": 7626,
      "Ġencoded": 7627,
      "Ġiterations": 7628,
      "ellow": 7629,
      "getcwd": 7630,
      "ĠON": 7631,
      "Ġtxt": 7632,
      "Ġ10000": 7633,
      "figsize": 7634,
      "Ġ\"[": 7635,
      "facts": 7636,
      "dicate": 7637,
      "GTH": 7638,
      "OM": 7639,
      "ners": 7640,
      "esh": 7641,
      "Ġresolution": 7642,
      "Ġ31": 7643,
      "rou": 7644,
      "Ġpot": 7645,
      "unpack": 7646,
      "expi": 7647,
      "prior": 7648,
      "ATCH": 7649,
      "hr": 7650,
      "rich": 7651,
      "éĻ": 7652,
      "Ġproduced": 7653,
      "Ġgeo": 7654,
      "atoms": 7655,
      "detect": 7656,
      "(\"<": 7657,
      "usic": 7658,
      "Ġdic": 7659,
      "Ġpor": 7660,
      "Ġindividual": 7661,
      "Ġdue": 7662,
      "')],": 7663,
      "udit": 7664,
      "Ġ'[": 7665,
      "imgs": 7666,
      "ĠWeb": 7667,
      "Metadata": 7668,
      "ĠMigration": 7669,
      "Ġsimulation": 7670,
      "\"]))": 7671,
      "Ġaddr": 7672,
      "YPE": 7673,
      "ĠSim": 7674,
      "NU": 7675,
      "ãĦ": 7676,
      "æĮ": 7677,
      "STEP": 7678,
      "cached": 7679,
      "\"})": 7680,
      "rx": 7681,
      "Ġtrigger": 7682,
      "customer": 7683,
      "family": 7684,
      "ĠMat": 7685,
      "ATTR": 7686,
      "king": 7687,
      "Ġfmt": 7688,
      "oter": 7689,
      "NESS": 7690,
      "ople": 7691,
      "'%": 7692,
      "It": 7693,
      "Expression": 7694,
      "tif": 7695,
      "spin": 7696,
      "Ġ2017": 7697,
      "FP": 7698,
      "__))": 7699,
      "hit": 7700,
      "rev": 7701,
      "POS": 7702,
      "Ġinstalled": 7703,
      "Ho": 7704,
      "benchmark": 7705,
      "ems": 7706,
      "repository": 7707,
      "ĠStatus": 7708,
      "Items": 7709,
      "means": 7710,
      "Ġpprint": 7711,
      "Ġlistener": 7712,
      "ĠSolution": 7713,
      "Ġboto": 7714,
      "Import": 7715,
      "åĲį": 7716,
      "precated": 7717,
      "ylim": 7718,
      "Ġcalls": 7719,
      "Ġndarray": 7720,
      "GEN": 7721,
      "Ġexpand": 7722,
      "ĠGeneral": 7723,
      "Ġmultip": 7724,
      "Ġuseful": 7725,
      "Height": 7726,
      "ĠOne": 7727,
      "cuit": 7728,
      "Ð¾Ð²": 7729,
      "Hello": 7730,
      "ĠEnd": 7731,
      "corr": 7732,
      "('/')": 7733,
      "'d": 7734,
      "coin": 7735,
      "igen": 7736,
      "ĠPol": 7737,
      "ãĤĴ": 7738,
      "dynamic": 7739,
      "atar": 7740,
      "execution": 7741,
      "Ġprepare": 7742,
      "Ġbins": 7743,
      "Ġstill": 7744,
      "Ġhref": 7745,
      "Panel": 7746,
      "nu": 7747,
      "(\".": 7748,
      "Ġcover": 7749,
      "Ġwrong": 7750,
      "############################################################################": 7751,
      "oauth": 7752,
      "formance": 7753,
      "ATED": 7754,
      "SUB": 7755,
      "rees": 7756,
      "xtures": 7757,
      "allenge": 7758,
      "ĠModule": 7759,
      "/\",": 7760,
      "Ġconnected": 7761,
      "RED": 7762,
      "Remove": 7763,
      "150": 7764,
      "gi": 7765,
      "endor": 7766,
      "windows": 7767,
      "Ġapplied": 7768,
      "until": 7769,
      "é¡": 7770,
      "ĠCor": 7771,
      "failure": 7772,
      "='')": 7773,
      "basis": 7774,
      "Ġdepend": 7775,
      "Driver": 7776,
      "Ġannotations": 7777,
      "ĠCalculate": 7778,
      "ĠOther": 7779,
      "åľ¨": 7780,
      "bra": 7781,
      "heel": 7782,
      "Ġquanti": 7783,
      "idue": 7784,
      "åĩº": 7785,
      "ores": 7786,
      "segments": 7787,
      "resolution": 7788,
      "iterator": 7789,
      "ĠFLAGS": 7790,
      "blog": 7791,
      "FORMAT": 7792,
      "hest": 7793,
      "chi": 7794,
      "(%": 7795,
      "ised": 7796,
      "specific": 7797,
      "yles": 7798,
      "<=": 7799,
      "ĠTType": 7800,
      "hosts": 7801,
      "\")[": 7802,
      "phab": 7803,
      "Ġ^": 7804,
      "Ġ{{": 7805,
      "VM": 7806,
      "Arg": 7807,
      "hub": 7808,
      "chars": 7809,
      "Ġslot": 7810,
      "under": 7811,
      "Ġdeploy": 7812,
      "ibration": 7813,
      "Ġsimp": 7814,
      "nored": 7815,
      "Ġvertices": 7816,
      "ĠWhether": 7817,
      "ANCE": 7818,
      "Ġchecks": 7819,
      "AWS": 7820,
      "ffi": 7821,
      "otation": 7822,
      "iling": 7823,
      "ĠCOP": 7824,
      "Validator": 7825,
      "Ð´": 7826,
      "Ã§Ã£o": 7827,
      "resolve": 7828,
      "ĠOp": 7829,
      "xi": 7830,
      "za": 7831,
      "Ġsync": 7832,
      "Ġtakes": 7833,
      "Ġnargs": 7834,
      "åĪĨ": 7835,
      "Ġprobability": 7836,
      "ĠInitialize": 7837,
      "('.')": 7838,
      "FIEL": 7839,
      "Show": 7840,
      "CUR": 7841,
      "è¾": 7842,
      "inx": 7843,
      "Ġbus": 7844,
      "Ġ<->": 7845,
      "Ġpretty": 7846,
      "ä¼": 7847,
      "Ġmight": 7848,
      "adjust": 7849,
      "versed": 7850,
      "ĠWrite": 7851,
      "positive": 7852,
      "gc": 7853,
      "Ġfold": 7854,
      "ĠCONF": 7855,
      "ora": 7856,
      "Ġkw": 7857,
      "wind": 7858,
      "Ġta": 7859,
      "sdk": 7860,
      "GRO": 7861,
      "atible": 7862,
      "lihood": 7863,
      "()])": 7864,
      "Ġ#:": 7865,
      "timezone": 7866,
      "neighbors": 7867,
      ">`": 7868,
      "........": 7869,
      "Ġuri": 7870,
      "trl": 7871,
      "utiful": 7872,
      "Domain": 7873,
      "collect": 7874,
      "BACK": 7875,
      "gres": 7876,
      "Ġ''.": 7877,
      "ĠDist": 7878,
      "formatter": 7879,
      "Ġsubset": 7880,
      "çī": 7881,
      "Enabled": 7882,
      "ĠCOPY": 7883,
      "ĠSign": 7884,
      "OFF": 7885,
      "XY": 7886,
      "ç¬": 7887,
      "receive": 7888,
      "________________": 7889,
      "Util": 7890,
      "EVENT": 7891,
      "literals": 7892,
      "ĠĊĠĠĠĠĠĠĠĠĠĠĠĠĠĠĠĠĠĠĠĠĠĠĠ": 7893,
      "Ġcoeffici": 7894,
      "agg": 7895,
      "!\"": 7896,
      "clock": 7897,
      "Ġtables": 7898,
      "wi": 7899,
      "zation": 7900,
      "Ġss": 7901,
      "translation": 7902,
      "Ġdirectly": 7903,
      "Align": 7904,
      "WORK": 7905,
      "pending": 7906,
      "vest": 7907,
      "ĠFilter": 7908,
      "ganization": 7909,
      "Offset": 7910,
      "Ġlinewidth": 7911,
      "IBUT": 7912,
      "hem": 7913,
      "ĠFIT": 7914,
      "Provider": 7915,
      "structions": 7916,
      "remain": 7917,
      "Ġknown": 7918,
      "ENV": 7919,
      "BooleanField": 7920,
      "MAIN": 7921,
      "Ġorg": 7922,
      "ãĤĭ": 7923,
      "']):": 7924,
      "iteral": 7925,
      "==\"": 7926,
      "``,": 7927,
      "ĠParameter": 7928,
      "LIED": 7929,
      "species": 7930,
      "Points": 7931,
      "Right": 7932,
      "virtual": 7933,
      "LENGTH": 7934,
      "WID": 7935,
      "YY": 7936,
      "kg": 7937,
      "Ġpid": 7938,
      "based": 7939,
      "iteration": 7940,
      ".%": 7941,
      "\"\"\",": 7942,
      "Ġshare": 7943,
      "linux": 7944,
      "Ġ([": 7945,
      "chronous": 7946,
      "Ġsquare": 7947,
      "ĠAss": 7948,
      "ĠLICENSE": 7949,
      "Ġeq": 7950,
      "cha": 7951,
      "Sm": 7952,
      "Ġactor": 7953,
      "terms": 7954,
      "Ġmade": 7955,
      "tm": 7956,
      "ĠVAL": 7957,
      "notes": 7958,
      "Comple": 7959,
      "Ġstatement": 7960,
      "ĠPUR": 7961,
      "feats": 7962,
      "levels": 7963,
      "Construct": 7964,
      "Ġcells": 7965,
      "licies": 7966,
      "constraint": 7967,
      "!=": 7968,
      "Ġut": 7969,
      "journal": 7970,
      "serializers": 7971,
      "revision": 7972,
      "Ġexact": 7973,
      "management": 7974,
      "Ġautomatically": 7975,
      "assets": 7976,
      "Ġsources": 7977,
      "Ġtools": 7978,
      "Json": 7979,
      "ndim": 7980,
      "markdown": 7981,
      "bank": 7982,
      "follow": 7983,
      "Ġarticle": 7984,
      "margin": 7985,
      "alty": 7986,
      "setdefault": 7987,
      "contour": 7988,
      "itation": 7989,
      "Ġord": 7990,
      "trols": 7991,
      "Ġscalar": 7992,
      "FS": 7993,
      "Ġinspect": 7994,
      "Ġwave": 7995,
      "CN": 7996,
      "Package": 7997,
      "Save": 7998,
      "Success": 7999,
      "uel": 8000,
      "Cloud": 8001,
      "ever": 8002,
      "mq": 8003,
      "ories": 8004,
      "Ġdelimiter": 8005,
      "Descriptor": 8006,
      "Ġepisode": 8007,
      "mic": 8008,
      "ffff": 8009,
      "Ġpacket": 8010,
      "incipal": 8011,
      "presentation": 8012,
      "bum": 8013,
      "Ġasset": 8014,
      "tokenizer": 8015,
      "Ġsuccessfully": 8016,
      "Ġlab": 8017,
      "eros": 8018,
      "ĠSup": 8019,
      "ĠFound": 8020,
      "house": 8021,
      "statement": 8022,
      "Backend": 8023,
      "ĠPIL": 8024,
      "ERCH": 8025,
      "packet": 8026,
      "slots": 8027,
      "Ġ'':": 8028,
      "ĊĠĠĠĠĠĠĠĠĠĠĠĠĠĠĠĠĠĠĠĠĠĠĠĠĠĠĠĠĠĠĠĠĠĠĠĠĠĠĠĠĠĠĠĠĠĠĠĠĠĠĠĠĠĠĠĠĠĠĠĠĠĠĠĠĠĠĠĠĠĠĠĠĠĠĠĠĠĠĠĠ": 8029,
      "~~~~~~~~~~~~~~~~": 8030,
      "ads": 8031,
      "Ġsqlite": 8032,
      "NET": 8033,
      "Ġcc": 8034,
      "Ġdetermine": 8035,
      "Ġnamed": 8036,
      "Ġcreating": 8037,
      "Ġ'../": 8038,
      "CRET": 8039,
      "ĠSearch": 8040,
      "selector": 8041,
      "ĠVi": 8042,
      "ĠBUT": 8043,
      "MC": 8044,
      "tig": 8045,
      "Ġmass": 8046,
      "),(": 8047,
      "ĠWindow": 8048,
      "Ġpg": 8049,
      "Ġok": 8050,
      "ERCHANT": 8051,
      "Ġgate": 8052,
      "BER": 8053,
      "anded": 8054,
      "Ġindi": 8055,
      "Expected": 8056,
      "mutation": 8057,
      "Close": 8058,
      "rupt": 8059,
      "Sec": 8060,
      "nav": 8061,
      "solver": 8062,
      "uz": 8063,
      "Ġband": 8064,
      "10000": 8065,
      "heat": 8066,
      "minator": 8067,
      "Ġrunner": 8068,
      "ĠArray": 8069,
      "åĪ°": 8070,
      "station": 8071,
      "operations": 8072,
      "Ġsampling": 8073,
      "Exist": 8074,
      "ĠÐ²": 8075,
      "))))": 8076,
      "ĠDATA": 8077,
      "minimum": 8078,
      "litude": 8079,
      "Ġencode": 8080,
      "mysql": 8081,
      "cards": 8082,
      "ĠNOTE": 8083,
      "drive": 8084,
      "è´": 8085,
      "Ġconsole": 8086,
      "Ġ204": 8087,
      "grams": 8088,
      "åŀ": 8089,
      "indic": 8090,
      "ables": 8091,
      "Ġ\\\"": 8092,
      "PD": 8093,
      "/')": 8094,
      "har": 8095,
      "pw": 8096,
      "CHE": 8097,
      "Ġepsilon": 8098,
      "Ġrepository": 8099,
      "æ³": 8100,
      "Ġten": 8101,
      "roi": 8102,
      "Ġfc": 8103,
      "vr": 8104,
      "IV": 8105,
      "ĠPURPOSE": 8106,
      "Ġht": 8107,
      "atings": 8108,
      "Ġll": 8109,
      "quival": 8110,
      "NAM": 8111,
      "Ġvectors": 8112,
      "ple": 8113,
      "Ġê": 8114,
      "Ġsurface": 8115,
      "Common": 8116,
      "density": 8117,
      "Ġws": 8118,
      "ints": 8119,
      "acle": 8120,
      "Wall": 8121,
      "payment": 8122,
      "COUNT": 8123,
      "changes": 8124,
      "REQUEST": 8125,
      "Cannot": 8126,
      "Non": 8127,
      "Ġfid": 8128,
      "Ġ27": 8129,
      "ĊĠĠĠĠĊĠĠĠĠĠĠĠ": 8130,
      "Identifier": 8131,
      "notification": 8132,
      "UST": 8133,
      "ancy": 8134,
      "Ġpm": 8135,
      "Ġthree": 8136,
      "ERCHANTABILITY": 8137,
      "ADDR": 8138,
      "ĠMethod": 8139,
      "LEV": 8140,
      "dal": 8141,
      "anchor": 8142,
      "Ġ\"'": 8143,
      "pow": 8144,
      "trigger": 8145,
      "Ġ512": 8146,
      "Member": 8147,
      "UES": 8148,
      "Ġactivity": 8149,
      "Ġ---": 8150,
      "lio": 8151,
      "oney": 8152,
      "compat": 8153,
      "ĠAuthor": 8154,
      "ares": 8155,
      "scaling": 8156,
      "atype": 8157,
      "ĠGoogle": 8158,
      "boundary": 8159,
      "ĠPi": 8160,
      "cleaned": 8161,
      "History": 8162,
      "Has": 8163,
      "pretrained": 8164,
      "172": 8165,
      "Empty": 8166,
      "Score": 8167,
      "redis": 8168,
      "();": 8169,
      "Soup": 8170,
      "Ġretrieve": 8171,
      "NotFoundError": 8172,
      "Gate": 8173,
      "bility": 8174,
      "metry": 8175,
      "ĠConst": 8176,
      "ĠLeak": 8177,
      "dialog": 8178,
      "Ġrc": 8179,
      "ĠBlock": 8180,
      "groupby": 8181,
      "CCESS": 8182,
      "Ġcycle": 8183,
      "Ġbind": 8184,
      "Ġdensity": 8185,
      "è¦": 8186,
      "live": 8187,
      "CLI": 8188,
      "åŀĭ": 8189,
      "xlim": 8190,
      "Fail": 8191,
      "Ġboundary": 8192,
      "TICULAR": 8193,
      "Root": 8194,
      "ny": 8195,
      "livery": 8196,
      "Ġhapp": 8197,
      "asp": 8198,
      "construct": 8199,
      "Nodes": 8200,
      "ĠOper": 8201,
      "Ġcnt": 8202,
      "Ġdummy": 8203,
      "ĠBY": 8204,
      "Ġsetattr": 8205,
      "ĠHT": 8206,
      "dependent": 8207,
      "Ġcs": 8208,
      "ĠPARTICULAR": 8209,
      "EE": 8210,
      "Active": 8211,
      "azure": 8212,
      "ima": 8213,
      "}),": 8214,
      "MET": 8215,
      "{}_": 8216,
      "Fixed": 8217,
      "Usage": 8218,
      "heads": 8219,
      "estimator": 8220,
      "Ġruns": 8221,
      "las": 8222,
      "pag": 8223,
      "chart": 8224,
      "which": 8225,
      "ç®": 8226,
      "Mod": 8227,
      "yr": 8228,
      "Ġaz": 8229,
      "outfile": 8230,
      "functional": 8231,
      "æĶ": 8232,
      "dependencies": 8233,
      "AST": 8234,
      "bundle": 8235,
      "ç§": 8236,
      "Ġspan": 8237,
      "crypted": 8238,
      "fw": 8239,
      "')))": 8240,
      "validators": 8241,
      "prime": 8242,
      "ĠEd": 8243,
      "Pack": 8244,
      "Spe": 8245,
      "alert": 8246,
      "charge": 8247,
      "___": 8248,
      "Ġhex": 8249,
      "Ġaround": 8250,
      "Ġcloud": 8251,
      "degree": 8252,
      "buy": 8253,
      "567": 8254,
      "_[": 8255,
      "ĠÑģ": 8256,
      "lope": 8257,
      "lazy": 8258,
      "alancer": 8259,
      "ities": 8260,
      "^^": 8261,
      "Ġsender": 8262,
      "FileName": 8263,
      "Ġfinished": 8264,
      "isation": 8265,
      "ament": 8266,
      "Ġconcat": 8267,
      "Ġobservation": 8268,
      "VALUE": 8269,
      "Ġsy": 8270,
      "Ġops": 8271,
      "idxs": 8272,
      "batches": 8273,
      "queryset": 8274,
      "ĠMERCHANTABILITY": 8275,
      "letter": 8276,
      "capacity": 8277,
      "gain": 8278,
      "ste": 8279,
      "apt": 8280,
      "dataclass": 8281,
      "è¯·": 8282,
      "ĠNetwork": 8283,
      "fla": 8284,
      "Definition": 8285,
      "MD": 8286,
      "matmul": 8287,
      "Ġworkflow": 8288,
      "players": 8289,
      "ĠResult": 8290,
      "ua": 8291,
      "descriptor": 8292,
      "coming": 8293,
      "plots": 8294,
      "ulary": 8295,
      "Ġscra": 8296,
      "åĽŀ": 8297,
      "'}),": 8298,
      "Ġblue": 8299,
      "$\\": 8300,
      "Send": 8301,
      "peer": 8302,
      "olved": 8303,
      "finished": 8304,
      "Bit": 8305,
      "emit": 8306,
      "ä¾": 8307,
      "verts": 8308,
      "ĠServer": 8309,
      "TP": 8310,
      "ages": 8311,
      "Ġer": 8312,
      "Ġattach": 8313,
      "Ġfh": 8314,
      "spatial": 8315,
      "cepted": 8316,
      "Ġbalance": 8317,
      "ĠSession": 8318,
      "Ġamp": 8319,
      "inux": 8320,
      "Ġhit": 8321,
      "tropy": 8322,
      "ards": 8323,
      "Ġsoft": 8324,
      "Ġgeneral": 8325,
      "PRESS": 8326,
      "Ġclassifier": 8327,
      "masked": 8328,
      "Register": 8329,
      "Ġmerged": 8330,
      "stand": 8331,
      "general": 8332,
      "Ġscheduler": 8333,
      "large": 8334,
      "vn": 8335,
      "more": 8336,
      "Ġ()": 8337,
      "classification": 8338,
      "agger": 8339,
      "Bad": 8340,
      "Ġlarge": 8341,
      "qs": 8342,
      "Ġcast": 8343,
      "servers": 8344,
      "hw": 8345,
      "Raw": 8346,
      "gp": 8347,
      "agents": 8348,
      "manifest": 8349,
      "ĠLIMITED": 8350,
      "Fl": 8351,
      "TAG": 8352,
      "ae": 8353,
      "VO": 8354,
      "Ġtax": 8355,
      "Ġfoo": 8356,
      "Dense": 8357,
      "recipe": 8358,
      "rnn": 8359,
      "Ġcalling": 8360,
      "ike": 8361,
      "pear": 8362,
      "udi": 8363,
      "Ġ':": 8364,
      "limits": 8365,
      "Ġconverted": 8366,
      "Ġinp": 8367,
      "indexes": 8368,
      "clicked": 8369,
      "ĠMon": 8370,
      "Long": 8371,
      "Many": 8372,
      "Ġvec": 8373,
      "Ġrv": 8374,
      "pixels": 8375,
      "ç½®": 8376,
      "Fields": 8377,
      "ĠAttributes": 8378,
      "lam": 8379,
      "INPUT": 8380,
      "Ġcreation": 8381,
      "GI": 8382,
      "Ob": 8383,
      "sequences": 8384,
      "Ġnone": 8385,
      "interpol": 8386,
      "Ġtransfer": 8387,
      "Ġsomething": 8388,
      "otype": 8389,
      "clf": 8390,
      "TRAIN": 8391,
      "Ġfailure": 8392,
      "utifulSoup": 8393,
      "]',": 8394,
      "sy": 8395,
      "<<": 8396,
      "Ġpag": 8397,
      "irt": 8398,
      "runs": 8399,
      "ffici": 8400,
      "editor": 8401,
      "ĠChange": 8402,
      "æĢ": 8403,
      "lices": 8404,
      "randn": 8405,
      "Body": 8406,
      "ONT": 8407,
      "iteritems": 8408,
      "OUTPUT": 8409,
      "Pattern": 8410,
      "tip": 8411,
      "Ġcopies": 8412,
      "ĠAD": 8413,
      "Ġunknown": 8414,
      "okies": 8415,
      "ĠDevice": 8416,
      "hdf": 8417,
      "Ġpdf": 8418,
      "itect": 8419,
      "Ġhard": 8420,
      "{})": 8421,
      "Ġlocations": 8422,
      "clusive": 8423,
      "Missing": 8424,
      "disco": 8425,
      "outer": 8426,
      "ung": 8427,
      "Ġ35": 8428,
      "è®¾": 8429,
      "middleware": 8430,
      "åŃĺ": 8431,
      "between": 8432,
      "viation": 8433,
      "Union": 8434,
      "Ġbetter": 8435,
      "epsilon": 8436,
      "Ġmail": 8437,
      "encoded": 8438,
      "mor": 8439,
      "algorithm": 8440,
      "Ġali": 8441,
      "Ġrefresh": 8442,
      "Proxy": 8443,
      "central": 8444,
      "å·": 8445,
      "BY": 8446,
      "vor": 8447,
      "cod": 8448,
      "COMP": 8449,
      "Ġignored": 8450,
      "ĠIMPLIED": 8451,
      "sock": 8452,
      "chdir": 8453,
      "conditions": 8454,
      "minutes": 8455,
      "Ġarc": 8456,
      "\")),": 8457,
      "Sn": 8458,
      "|\\": 8459,
      "ëĭ": 8460,
      "224": 8461,
      "Ann": 8462,
      "Func": 8463,
      "consumer": 8464,
      "INST": 8465,
      "åĢ¼": 8466,
      "nom": 8467,
      "Ġhalf": 8468,
      "Ġreading": 8469,
      "ressor": 8470,
      "detection": 8471,
      "cture": 8472,
      "ism": 8473,
      "deleted": 8474,
      "Ġderiv": 8475,
      "ðĿ": 8476,
      "Ġ180": 8477,
      "quit": 8478,
      "MAGES": 8479,
      "tinuous": 8480,
      "Ð°ÑĤ": 8481,
      "QtGui": 8482,
      "LP": 8483,
      "ĠEnum": 8484,
      "Div": 8485,
      "setLevel": 8486,
      "ĠDelete": 8487,
      "Ġ'*": 8488,
      "Ġtokenizer": 8489,
      "Ġpages": 8490,
      "Limit": 8491,
      "tit": 8492,
      "ĠPh": 8493,
      "2016": 8494,
      "Lines": 8495,
      "Ġ34": 8496,
      "Fi": 8497,
      "Extra": 8498,
      ",(": 8499,
      "pay": 8500,
      "vey": 8501,
      "2012": 8502,
      "Vivo": 8503,
      "ulse": 8504,
      "irth": 8505,
      "Ġneighbor": 8506,
      "ĠTemplate": 8507,
      "Ġdescri": 8508,
      "Ġpose": 8509,
      "swap": 8510,
      "Ġcp": 8511,
      "Ġ_(\"": 8512,
      "STM": 8513,
      "xls": 8514,
      "å¹": 8515,
      "former": 8516,
      "ickness": 8517,
      "PARAM": 8518,
      "Ġ26": 8519,
      "creen": 8520,
      "equ": 8521,
      "ĊĠĠĠĠĠĠĠĠĠĠĠĠĠĠĠĠĠĠĠĠĠĠĠĠĠĠĠĠĠĠĠĠĠĠĠĠĠĠĠĠĠĠĠĠĠĠĠĠĠ": 8522,
      "Syn": 8523,
      "cks": 8524,
      "park": 8525,
      "ĠIs": 8526,
      "Ġjobs": 8527,
      "Ġpp": 8528,
      "submission": 8529,
      "Sets": 8530,
      "mantic": 8531,
      "sigmoid": 8532,
      ".\".": 8533,
      "Ġdash": 8534,
      "gal": 8535,
      "ĠVector": 8536,
      "rst": 8537,
      "è½": 8538,
      "İ·": 8539,
      "gether": 8540,
      "marks": 8541,
      "ystems": 8542,
      "CHAR": 8543,
      "dtypes": 8544,
      "addle": 8545,
      "shapes": 8546,
      "detector": 8547,
      "DEX": 8548,
      "é¢": 8549,
      "scaled": 8550,
      "dtuple": 8551,
      "ãĥ¼": 8552,
      "uplicates": 8553,
      "ĠLeakage": 8554,
      "illing": 8555,
      "]]):": 8556,
      "åı¯": 8557,
      "Ġcompleted": 8558,
      "ortion": 8559,
      "ãĢģ": 8560,
      "Icon": 8561,
      "nl": 8562,
      "Ġ42": 8563,
      "Ġmocker": 8564,
      "Ġoverwrite": 8565,
      "Ġsafe": 8566,
      "trial": 8567,
      "Ġpriority": 8568,
      "accounts": 8569,
      "Ġadding": 8570,
      "Accept": 8571,
      "plain": 8572,
      "ceil": 8573,
      "Ġprompt": 8574,
      "(('": 8575,
      "ĠBea": 8576,
      "]\",": 8577,
      "native": 8578,
      "LEFT": 8579,
      "ĠXXXXXXXX": 8580,
      "Information": 8581,
      "Ġcurve": 8582,
      "Lock": 8583,
      "ravel": 8584,
      "Environment": 8585,
      "Ġur": 8586,
      "hou": 8587,
      "regions": 8588,
      "sqlite": 8589,
      "Ġcpu": 8590,
      "Ġstock": 8591,
      "Ġcourse": 8592,
      "sound": 8593,
      "TIONS": 8594,
      "Flag": 8595,
      "ris": 8596,
      "SECRET": 8597,
      "BatchNorm": 8598,
      "Make": 8599,
      "Expr": 8600,
      "_\"": 8601,
      "spacing": 8602,
      "tacts": 8603,
      "loading": 8604,
      "IVE": 8605,
      "]{": 8606,
      "student": 8607,
      "Exit": 8608,
      "ific": 8609,
      "mx": 8610,
      "mpl": 8611,
      "Ġassume": 8612,
      "centi": 8613,
      "Ġloader": 8614,
      "Basic": 8615,
      "xFF": 8616,
      "ĠFirst": 8617,
      "market": 8618,
      "ĊĠĠĠĠĠĠĠĠĠĠĠĠĠĠĠĠĠĠĠĠĠĠĠĠĠĠĠĠĠĠĠĠĠĠĠĠĠĠĠĠĠĠĠĠĠĠĠĠĠĠ": 8619,
      "DOWN": 8620,
      ")/(": 8621,
      "GT": 8622,
      "()['": 8623,
      "Ġbits": 8624,
      "Ġls": 8625,
      "Ġargv": 8626,
      "ĠFITNESS": 8627,
      "Hub": 8628,
      "weets": 8629,
      "Ġactiv": 8630,
      "Ġdifference": 8631,
      "Ġpeak": 8632,
      "sembly": 8633,
      "WIDTH": 8634,
      "Ġocc": 8635,
      "water": 8636,
      "Ġdetect": 8637,
      "bx": 8638,
      "Ġent": 8639,
      "Distri": 8640,
      "]\")": 8641,
      "ĠĊĠĠĠĠĠĠĠĠĠĠĠĠĠĠĠĠĠĠĠ": 8642,
      "traj": 8643,
      "questions": 8644,
      "collector": 8645,
      "Ġassigned": 8646,
      "arrow": 8647,
      "')(": 8648,
      "Ġnormalized": 8649,
      "2015": 8650,
      "Ġ-->": 8651,
      "grpc": 8652,
      "Ġmet": 8653,
      "ĠEVENT": 8654,
      "Fil": 8655,
      "identi": 8656,
      "DELETE": 8657,
      "completed": 8658,
      "Ġhashlib": 8659,
      "RA": 8660,
      "och": 8661,
      "Ġradi": 8662,
      "Ġdouble": 8663,
      "priate": 8664,
      "Ġvals": 8665,
      "Ġtuples": 8666,
      "ifiers": 8667,
      "ĠGPIO": 8668,
      "Ġupdates": 8669,
      "Ġdevices": 8670,
      "tech": 8671,
      "ĠJson": 8672,
      "ĠMedium": 8673,
      "åĪĹ": 8674,
      "Runner": 8675,
      "SN": 8676,
      "motion": 8677,
      "PREFIX": 8678,
      "ierarchy": 8679,
      "(\"{": 8680,
      "Hash": 8681,
      "micro": 8682,
      "atives": 8683,
      "Ġdl": 8684,
      "DP": 8685,
      "uk": 8686,
      "ĠThese": 8687,
      "CHAN": 8688,
      "ĠCOPYRIGHT": 8689,
      "Doc": 8690,
      "Light": 8691,
      "_=": 8692,
      "eth": 8693,
      "ighest": 8694,
      "ĠDocument": 8695,
      "Note": 8696,
      "suite": 8697,
      "}_{": 8698,
      "combo": 8699,
      "Ġmen": 8700,
      "ĠBack": 8701,
      "125": 8702,
      "ĠHel": 8703,
      "Ġsupp": 8704,
      "æĪ·": 8705,
      "éĹ´": 8706,
      "Ġsparse": 8707,
      "estyle": 8708,
      "scenario": 8709,
      "Ġcatalog": 8710,
      "cipient": 8711,
      "ulo": 8712,
      "Ġkeywords": 8713,
      "variant": 8714,
      "Ġvelocity": 8715,
      "sz": 8716,
      "izations": 8717,
      "Ġbackup": 8718,
      "hing": 8719,
      "Ġexpi": 8720,
      "ĠInst": 8721,
      "dimensions": 8722,
      "Ren": 8723,
      "ččĊĠĠ": 8724,
      "ĠUN": 8725,
      "Ġremaining": 8726,
      "CB": 8727,
      "Timeout": 8728,
      "queries": 8729,
      "Ġsetuptools": 8730,
      "ticket": 8731,
      "***": 8732,
      "ĠThere": 8733,
      "runc": 8734,
      "Handle": 8735,
      "schemas": 8736,
      "Ġpipe": 8737,
      "AutoField": 8738,
      "ĠCloud": 8739,
      "confirm": 8740,
      "Ġstrip": 8741,
      ">\")": 8742,
      "Ġcity": 8743,
      "utron": 8744,
      "Split": 8745,
      "listener": 8746,
      "numeric": 8747,
      "Ġapprox": 8748,
      "Ip": 8749,
      "tcp": 8750,
      "Ġground": 8751,
      "Ġloading": 8752,
      "WARNING": 8753,
      "ä¿¡": 8754,
      "Sta": 8755,
      "ely": 8756,
      "pod": 8757,
      "ĠEach": 8758,
      "ĠNormal": 8759,
      "Ġgeometry": 8760,
      "Ang": 8761,
      "çĤ": 8762,
      "weep": 8763,
      "Operator": 8764,
      "['_": 8765,
      "ĠPass": 8766,
      "=\"<": 8767,
      "sensi": 8768,
      "backends": 8769,
      "TYPES": 8770,
      "nonzero": 8771,
      "theme": 8772,
      "riteria": 8773,
      "leaf": 8774,
      "angular": 8775,
      "Metric": 8776,
      "Ġ################": 8777,
      "illi": 8778,
      "adjective": 8779,
      "CY": 8780,
      "eye": 8781,
      "lc": 8782,
      "since": 8783,
      "merged": 8784,
      "ĊĠĠĠĠĠĠĠĠĠĠĠĠĠĠĠĠĠĠĠĠĠĠĠĠĠĠĠĠĠĠĠĠĠĠĠĠĠĠĠĠĠĠĠĠĠĠĠĠĠĠĠĠĠĠĠ": 8785,
      "Ð¿": 8786,
      "ĠCH": 8787,
      "LEVEL": 8788,
      "Ġservices": 8789,
      "MGL": 8790,
      "Ġren": 8791,
      "NULL": 8792,
      "Ġpush": 8793,
      "celer": 8794,
      "tempts": 8795,
      "[:,:,": 8796,
      "Ġ\"\":": 8797,
      "Ġwarning": 8798,
      "spark": 8799,
      "Ġguess": 8800,
      "trunc": 8801,
      "SetType": 8802,
      "impl": 8803,
      "ĠPROVID": 8804,
      "deps": 8805,
      "closed": 8806,
      "ĠDescription": 8807,
      "Socket": 8808,
      "orientation": 8809,
      "ynomial": 8810,
      "Ġminutes": 8811,
      "cmap": 8812,
      "Ġrepe": 8813,
      "ĠDep": 8814,
      "ledge": 8815,
      "sf": 8816,
      "issues": 8817,
      "agraph": 8818,
      "Ġstarted": 8819,
      "CRIPT": 8820,
      "łģ": 8821,
      "pitch": 8822,
      "outh": 8823,
      "cipant": 8824,
      "assertIsInstance": 8825,
      "Cmd": 8826,
      "Single": 8827,
      "Wait": 8828,
      "čĊĠĠĠĠĠ": 8829,
      "ĠTag": 8830,
      "=('": 8831,
      "ĠRelation": 8832,
      "information": 8833,
      "Ġcriterion": 8834,
      "ä¸ĭ": 8835,
      "Price": 8836,
      "oman": 8837,
      "ranges": 8838,
      "Ġabstract": 8839,
      "Next": 8840,
      "arent": 8841,
      "hits": 8842,
      "ĠĠĠĠĠĠĠĠĠĠĠĠĠĠĠĠĠĠĠ": 8843,
      "preprocess": 8844,
      "ĠBe": 8845,
      "DEL": 8846,
      "Ð°Ð½": 8847,
      "tight": 8848,
      "ĠSc": 8849,
      "scra": 8850,
      "creation": 8851,
      "Signal": 8852,
      "onomy": 8853,
      "??": 8854,
      "ĠXXX": 8855,
      "sky": 8856,
      "Changed": 8857,
      ",:": 8858,
      "']=": 8859,
      "Selection": 8860,
      "dark": 8861,
      "Ġti": 8862,
      "Ġsolver": 8863,
      "itext": 8864,
      "NG": 8865,
      "pan": 8866,
      "Ġactually": 8867,
      "\"'": 8868,
      ",:]": 8869,
      "Ġnu": 8870,
      "ĠRO": 8871,
      "Ġpress": 8872,
      "Ġidentity": 8873,
      "semble": 8874,
      "isinstance": 8875,
      "ÐµÑĢ": 8876,
      "Ġseparate": 8877,
      "ĠBu": 8878,
      "Standard": 8879,
      "ABC": 8880,
      "WH": 8881,
      "Ġpc": 8882,
      "define": 8883,
      "250": 8884,
      "[@": 8885,
      "bold": 8886,
      "ĠParse": 8887,
      "Ġsheet": 8888,
      "ban": 8889,
      "ĠDynamic": 8890,
      "bosity": 8891,
      "ctrl": 8892,
      "Ġet": 8893,
      "Ġresponses": 8894,
      "artist": 8895,
      "Su": 8896,
      "sure": 8897,
      "å¸": 8898,
      "ORM": 8899,
      "æµ": 8900,
      "seek": 8901,
      "Ġspatial": 8902,
      "SERVER": 8903,
      "'m": 8904,
      "that": 8905,
      "Ġvars": 8906,
      "scriber": 8907,
      "ĠHTML": 8908,
      "Memory": 8909,
      "Ġ%%": 8910,
      "smooth": 8911,
      "ipv": 8912,
      "velength": 8913,
      "olutions": 8914,
      "PA": 8915,
      "Ġtimer": 8916,
      "Ġformatted": 8917,
      "Attributes": 8918,
      "colour": 8919,
      "constraints": 8920,
      "keywords": 8921,
      "Ġsequences": 8922,
      "]\\": 8923,
      "HTML": 8924,
      "Move": 8925,
      "posed": 8926,
      "='/": 8927,
      "[::-": 8928,
      "disabled": 8929,
      "Ġlosses": 8930,
      "------------------------------------------------------------------------": 8931,
      "ĠBeautifulSoup": 8932,
      "stone": 8933,
      "/__": 8934,
      "resnet": 8935,
      "Conf": 8936,
      "software": 8937,
      "Ġletter": 8938,
      "ĠĠĠĠĠĠĠĠĠĠĠĠĠĠĠĠĠ": 8939,
      "ĠSample": 8940,
      "ragma": 8941,
      "Cir": 8942,
      "Ġem": 8943,
      "ĠAction": 8944,
      "Ġchoose": 8945,
      "(\"_": 8946,
      "Ġgran": 8947,
      "Ġdetection": 8948,
      "chool": 8949,
      "__(*": 8950,
      "did": 8951,
      "lstm": 8952,
      "Ġdegree": 8953,
      "ippet": 8954,
      "ĠColor": 8955,
      "ï¸": 8956,
      "itespace": 8957,
      "110": 8958,
      "both": 8959,
      "Ġpdb": 8960,
      "Ġsmooth": 8961,
      "launch": 8962,
      "ĠSource": 8963,
      "MY": 8964,
      "Volume": 8965,
      "])))": 8966,
      "Ġtransp": 8967,
      "Ġmakes": 8968,
      "Ġcharge": 8969,
      "è¦ģ": 8970,
      "Ġdiv": 8971,
      ">>>": 8972,
      "planes": 8973,
      "ĠOrder": 8974,
      "Ġarchive": 8975,
      "Regex": 8976,
      "Ġentities": 8977,
      "pth": 8978,
      "Ġwebs": 8979,
      "DIRECT": 8980,
      "rouped": 8981,
      "CHECK": 8982,
      "Ġdynamic": 8983,
      "ĠItem": 8984,
      "imread": 8985,
      "ned": 8986,
      "Ġreview": 8987,
      "Ġmm": 8988,
      "chrom": 8989,
      "Ġnothing": 8990,
      "deriv": 8991,
      "hp": 8992,
      "otes": 8993,
      "recogn": 8994,
      "deserialize": 8995,
      "isco": 8996,
      "025": 8997,
      "Ġcomputed": 8998,
      "AddField": 8999,
      "CreateModel": 9000,
      "aj": 9001,
      "ots": 9002,
      "ĠStep": 9003,
      "Login": 9004,
      "$$": 9005,
      "Done": 9006,
      "`:": 9007,
      "MIT": 9008,
      "Power": 9009,
      "onical": 9010,
      "pedia": 9011,
      "rift": 9012,
      "typ": 9013,
      "Factor": 9014,
      "java": 9015,
      "union": 9016,
      "AlterField": 9017,
      "Ġmut": 9018,
      "connections": 9019,
      "prog": 9020,
      "Rece": 9021,
      "mongo": 9022,
      "æĸĩä»¶": 9023,
      "oi": 9024,
      "Ġ;": 9025,
      "ances": 9026,
      "æĸ°": 9027,
      "attack": 9028,
      "Ġblack": 9029,
      "Ġsecurity": 9030,
      "Ġ=>": 9031,
      "clients": 9032,
      "every": 9033,
      "ident": 9034,
      "sphere": 9035,
      "ĠSets": 9036,
      "éĩı": 9037,
      "inja": 9038,
      "mega": 9039,
      "ĠStop": 9040,
      "Ġchat": 9041,
      "Ġstatistics": 9042,
      "SERT": 9043,
      "NAMES": 9044,
      "cmp": 9045,
      "Ġ29": 9046,
      "rewards": 9047,
      "seudo": 9048,
      "Ġcategories": 9049,
      "Ġcond": 9050,
      "sentences": 9051,
      "Ġcorrectly": 9052,
      "Ġvirtual": 9053,
      "234": 9054,
      "presen": 9055,
      "CHEMA": 9056,
      "stdin": 9057,
      "blems": 9058,
      "Tags": 9059,
      "å¯¹": 9060,
      "ĠView": 9061,
      "IAL": 9062,
      "nick": 9063,
      "cope": 9064,
      "LIN": 9065,
      "Ġaws": 9066,
      "Ġclassification": 9067,
      "phabet": 9068,
      "ade": 9069,
      "Ġtar": 9070,
      "Ġrepeat": 9071,
      "('{": 9072,
      "msgs": 9073,
      "fac": 9074,
      "ĠGNU": 9075,
      "Ġ2016": 9076,
      "distances": 9077,
      "Redirect": 9078,
      "Ġseen": 9079,
      "circuit": 9080,
      "çŃ": 9081,
      "ĠĠĠĠĠĠĠĠĠĠĠĠĠĠĠĠĠĠĠĠĠĠĠĠ": 9082,
      "Ġrepresents": 9083,
      "±Ĥ": 9084,
      "Ġtransport": 9085,
      "sat": 9086,
      "Ġtz": 9087,
      "Ġcam": 9088,
      "party": 9089,
      "ĠCall": 9090,
      "Ġdetected": 9091,
      "ĠLay": 9092,
      "cleanup": 9093,
      "stan": 9094,
      "Ġpod": 9095,
      "ENTI": 9096,
      "population": 9097,
      "distributions": 9098,
      "5357": 9099,
      "mel": 9100,
      "rol": 9101,
      "normalized": 9102,
      "Ġallows": 9103,
      "Permission": 9104,
      "assignment": 9105,
      "curs": 9106,
      "Ġlearn": 9107,
      "Ġagainst": 9108,
      "gds": 9109,
      "nel": 9110,
      "maker": 9111,
      ":/": 9112,
      "aps": 9113,
      "eled": 9114,
      "Ġappropriate": 9115,
      "ĠCurrent": 9116,
      "']}": 9117,
      "ached": 9118,
      "Ġthreads": 9119,
      "Ġstrides": 9120,
      "199": 9121,
      "ptime": 9122,
      "need": 9123,
      "Ġwhite": 9124,
      "Ġmatched": 9125,
      "Ġ\"/\"": 9126,
      "lave": 9127,
      "Ġweek": 9128,
      "activate": 9129,
      "GIN": 9130,
      "Http": 9131,
      "Ġeffect": 9132,
      "Ġ_('": 9133,
      "ĠMagicMock": 9134,
      "CREATE": 9135,
      "ĥ½": 9136,
      "perf": 9137,
      "writeField": 9138,
      "ĠInteger": 9139,
      "started": 9140,
      "cutoff": 9141,
      "Ġ\\\\": 9142,
      "responses": 9143,
      "atched": 9144,
      "Ġsin": 9145,
      "ĠFetch": 9146,
      "Counter": 9147,
      "ĠQue": 9148,
      "binding": 9149,
      "+',": 9150,
      "Bind": 9151,
      "MIB": 9152,
      "lus": 9153,
      "contract": 9154,
      "Ġhold": 9155,
      "Seq": 9156,
      "2014": 9157,
      "])]": 9158,
      "İ·åıĸ": 9159,
      "čĊĠĠĠĠĠĠĠĠĠĠĠĠ": 9160,
      "ARK": 9161,
      "Ġquote": 9162,
      "Ġaux": 9163,
      "Ġfilenames": 9164,
      "RU": 9165,
      "('')": 9166,
      "predicted": 9167,
      "sertionError": 9168,
      "ĠIndexError": 9169,
      "Symbol": 9170,
      "corpus": 9171,
      "plane": 9172,
      "GG": 9173,
      "Ġparsing": 9174,
      "åıĤ": 9175,
      "DL": 9176,
      "ONG": 9177,
      "ĠLIABILITY": 9178,
      "IES": 9179,
      "RS": 9180,
      "nost": 9181,
      "objs": 9182,
      "Interval": 9183,
      "PP": 9184,
      "mse": 9185,
      "infos": 9186,
      "hx": 9187,
      "Ġtau": 9188,
      "Ġcu": 9189,
      "Ġgreater": 9190,
      "ĠGame": 9191,
      "{\\": 9192,
      "Ġ70": 9193,
      "ĠStandard": 9194,
      "tensors": 9195,
      "datas": 9196,
      "Ġdr": 9197,
      "uber": 9198,
      "ENCE": 9199,
      "vote": 9200,
      "([-": 9201,
      "wner": 9202,
      "Ġmem": 9203,
      "skill": 9204,
      "histogram": 9205,
      "ä»¥": 9206,
      "gold": 9207,
      "Ġtkinter": 9208,
      "(\"{}": 9209,
      "mtree": 9210,
      "Ġ99": 9211,
      "gnitude": 9212,
      "antic": 9213,
      "Ġserialized": 9214,
      "hard": 9215,
      "Ġcodes": 9216,
      "UNK": 9217,
      "products": 9218,
      "Ġdistances": 9219,
      "\":[": 9220,
      "Ġtimezone": 9221,
      "blueprint": 9222,
      "Hy": 9223,
      "bt": 9224,
      "Ġec": 9225,
      "è¿Ķ": 9226,
      "decorators": 9227,
      "Agg": 9228,
      "ĠDatabase": 9229,
      "Ð¾Ð»": 9230,
      "piece": 9231,
      "çİ": 9232,
      "tification": 9233,
      "Gets": 9234,
      "Ġflash": 9235,
      "ĠPermission": 9236,
      "pandas": 9237,
      "Ġconstraint": 9238,
      "Ġconstraints": 9239,
      "è§": 9240,
      "onie": 9241,
      "ĠEle": 9242,
      "fraction": 9243,
      "rp": 9244,
      "wp": 9245,
      "gateway": 9246,
      "kv": 9247,
      "Ġsubmission": 9248,
      "Ġpreds": 9249,
      "ï¸ı": 9250,
      "sections": 9251,
      "Idx": 9252,
      "LAB": 9253,
      "Ł¥": 9254,
      "fetchall": 9255,
      "ITS": 9256,
      "ĠConnection": 9257,
      "manual": 9258,
      "çĤ¹": 9259,
      "Ret": 9260,
      "Ġear": 9261,
      "aming": 9262,
      "Unable": 9263,
      "Running": 9264,
      "BS": 9265,
      "NEL": 9266,
      "sampler": 9267,
      "wf": 9268,
      "Analy": 9269,
      "RT": 9270,
      "æ¯": 9271,
      "Ġxs": 9272,
      "ĠET": 9273,
      "lying": 9274,
      "hole": 9275,
      "sessions": 9276,
      "lision": 9277,
      "dns": 9278,
      "jar": 9279,
      "Ġrecipe": 9280,
      "=\"/": 9281,
      "iration": 9282,
      "Dig": 9283,
      "Center": 9284,
      "Constraint": 9285,
      "6666": 9286,
      "Ġslug": 9287,
      "ĠSum": 9288,
      "([(": 9289,
      "Segment": 9290,
      "Almost": 9291,
      "+-": 9292,
      "sid": 9293,
      "åī": 9294,
      "upy": 9295,
      "dag": 9296,
      "gri": 9297,
      "additional": 9298,
      "versal": 9299,
      "Ġraised": 9300,
      "={},": 9301,
      "Del": 9302,
      "getvalue": 9303,
      "tries": 9304,
      "vd": 9305,
      "Ġinher": 9306,
      "Ġdid": 9307,
      "Ġ404": 9308,
      "inct": 9309,
      "lict": 9310,
      "gorithms": 9311,
      "bour": 9312,
      "matched": 9313,
      "ĠExamples": 9314,
      "strptime": 9315,
      "Find": 9316,
      "given": 9317,
      "fh": 9318,
      "pull": 9319,
      "Ġbrowser": 9320,
      "Ġmargin": 9321,
      "Ġlogic": 9322,
      "compiler": 9323,
      "LC": 9324,
      "Popen": 9325,
      "Ġruntime": 9326,
      "chunks": 9327,
      "uck": 9328,
      "897": 9329,
      "parents": 9330,
      "aterial": 9331,
      "Wallonie": 9332,
      "Render": 9333,
      "Ġmol": 9334,
      "Ġexplicit": 9335,
      "=\\": 9336,
      "Mean": 9337,
      "[\\": 9338,
      "ĠQtCore": 9339,
      "xxxx": 9340,
      "ĠDefine": 9341,
      "Ġinterpolation": 9342,
      "Ġcb": 9343,
      "Ġdetail": 9344,
      "ĠTHIS": 9345,
      "Ap": 9346,
      "lbl": 9347,
      "neighbor": 9348,
      "interfaces": 9349,
      "organization": 9350,
      "Choice": 9351,
      "difference": 9352,
      "inverse": 9353,
      "Ġastro": 9354,
      "åº¦": 9355,
      "\"/": 9356,
      "exchange": 9357,
      "Ġadv": 9358,
      "Ġversions": 9359,
      "svg": 9360,
      "cuts": 9361,
      "alignment": 9362,
      "Ġgetting": 9363,
      "sect": 9364,
      "Ġcred": 9365,
      "ĠĠĠĠĠĠĠĠĠĠĠĠĠĠĠĠĠĠ": 9366,
      "Ġcircle": 9367,
      "Ġ150": 9368,
      "EY": 9369,
      "san": 9370,
      "look": 9371,
      "Ġinline": 9372,
      "ĠNE": 9373,
      "shop": 9374,
      "Ġtyp": 9375,
      "discord": 9376,
      "geom": 9377,
      "Ġmix": 9378,
      "evaluation": 9379,
      "Ġhours": 9380,
      "AlmostEqual": 9381,
      "ln": 9382,
      "formats": 9383,
      "occ": 9384,
      "Ġ{}\\": 9385,
      "Ġlevels": 9386,
      "tracker": 9387,
      "ĠOver": 9388,
      "Ġwhole": 9389,
      "ios": 9390,
      "rections": 9391,
      "Ġstarts": 9392,
      "Ġcapture": 9393,
      "çº": 9394,
      "ĊĊĠĠ": 9395,
      "exact": 9396,
      "ĠBatch": 9397,
      "ĠButton": 9398,
      "splits": 9399,
      "_:": 9400,
      "Ġsubmit": 9401,
      "Ġoverlap": 9402,
      "ggle": 9403,
      "Ġmonitor": 9404,
      "MI": 9405,
      "Ġ._": 9406,
      "rier": 9407,
      "Ġroll": 9408,
      "ĠSeries": 9409,
      "ĠTri": 9410,
      "far": 9411,
      "\"]]": 9412,
      "alarm": 9413,
      "life": 9414,
      "Ġmouse": 9415,
      "rappe": 9416,
      "Images": 9417,
      "ingerprint": 9418,
      "Average": 9419,
      "MESS": 9420,
      "cores": 9421,
      "Ġdocker": 9422,
      "(\"#": 9423,
      "ĠAnd": 9424,
      "Ġ36": 9425,
      "æŀľ": 9426,
      "cart": 9427,
      "ĠTop": 9428,
      "ARD": 9429,
      "Hand": 9430,
      "nm": 9431,
      "xp": 9432,
      "asing": 9433,
      "å¼ı": 9434,
      "isnan": 9435,
      "Ġresize": 9436,
      "\"%": 9437,
      "Len": 9438,
      "Ġfg": 9439,
      "Ġrepresent": 9440,
      "Ġcmds": 9441,
      "Ġrestriction": 9442,
      "sph": 9443,
      "subscribe": 9444,
      "ãģĻ": 9445,
      "NECTION": 9446,
      "ä¸Ģä¸ª": 9447,
      "Ġflatten": 9448,
      "Ġworkspace": 9449,
      "Ġstick": 9450,
      "trust": 9451,
      "Copyright": 9452,
      "dh": 9453,
      "chase": 9454,
      "Ġtb": 9455,
      "Ġdates": 9456,
      "updates": 9457,
      "sible": 9458,
      "ĊĠĠĊĠ": 9459,
      "Dele": 9460,
      "vlan": 9461,
      "Ġgets": 9462,
      "calcul": 9463,
      "Ġindexes": 9464,
      "åĽ¾": 9465,
      "orph": 9466,
      "Ġredis": 9467,
      "quivalent": 9468,
      "itecture": 9469,
      "SPE": 9470,
      "dating": 9471,
      "gence": 9472,
      "inplace": 9473,
      "erical": 9474,
      "Ġage": 9475,
      "tections": 9476,
      "\")]": 9477,
      "APIView": 9478,
      "RUN": 9479,
      "ĠNULL": 9480,
      "working": 9481,
      "ĠÐ½": 9482,
      "simulation": 9483,
      "Ġinf": 9484,
      "cookie": 9485,
      "moji": 9486,
      "Ġvalidators": 9487,
      "ĠIOError": 9488,
      "çłģ": 9489,
      "ĠIF": 9490,
      "Ġphone": 9491,
      "Ġbasis": 9492,
      "enium": 9493,
      "Ġsr": 9494,
      "weighted": 9495,
      "season": 9496,
      "XML": 9497,
      "æģ": 9498,
      "Ġlaunch": 9499,
      "Ġintegr": 9500,
      "Ġcached": 9501,
      "projection": 9502,
      "Ġprojection": 9503,
      "æ¬": 9504,
      "continue": 9505,
      "Ġprops": 9506,
      "ĠEng": 9507,
      "books": 9508,
[...]
